{
  "version": "1.0",
  "truncation": null,
  "padding": null,
  "added_tokens": [
    {
      "id": 0,
      "content": "[UNK]",
      "single_word": false,
      "lstrip": false,
      "rstrip": false,
      "normalized": false,
      "special": true
    },
    {
      "id": 1,
      "content": "[PAD]",
      "single_word": false,
      "lstrip": false,
      "rstrip": false,
      "normalized": false,
      "special": true
    }
  ],
  "normalizer": null,
  "pre_tokenizer": null,
  "post_processor": null,
  "decoder": null,
  "model": {
    "type": "BPE",
    "dropout": null,
    "unk_token": "[UNK]",
    "continuing_subword_prefix": null,
    "end_of_word_suffix": null,
    "fuse_unk": false,
    "byte_fallback": false,
    "ignore_merges": false,
    "vocab": {
      "[UNK]": 0,
      "[PAD]": 1,
      "\n": 2,
      " ": 3,
      "!": 4,
      "$": 5,
      "%": 6,
      "'": 7,
      "(": 8,
      ")": 9,
      "+": 10,
      ",": 11,
      "-": 12,
      ".": 13,
      "0": 14,
      "1": 15,
      "2": 16,
      "3": 17,
      "4": 18,
      "5": 19,
      "7": 20,
      "8": 21,
      ":": 22,
      "<": 23,
      "=": 24,
      ">": 25,
      "A": 26,
      "C": 27,
      "D": 28,
      "E": 29,
      "F": 30,
      "H": 31,
      "I": 32,
      "J": 33,
      "M": 34,
      "O": 35,
      "P": 36,
      "S": 37,
      "T": 38,
      "U": 39,
      "_": 40,
      "a": 41,
      "b": 42,
      "c": 43,
      "d": 44,
      "e": 45,
      "f": 46,
      "g": 47,
      "h": 48,
      "i": 49,
      "j": 50,
      "k": 51,
      "l": 52,
      "m": 53,
      "n": 54,
      "o": 55,
      "p": 56,
      "q": 57,
      "r": 58,
      "s": 59,
      "t": 60,
      "u": 61,
      "v": 62,
      "w": 63,
      "x": 64,
      "y": 65,
      "z": 66,
      "{": 67,
      "}": 68,
      " a": 69,
      "in": 70,
      "e ": 71,
      "re": 72,
      "s ": 73,
      "d ": 74,
      "ti": 75,
      "th": 76,
      "on": 77,
      "en": 78,
      "t ": 79,
      "er": 80,
      "or": 81,
      "y ": 82,
      "ing": 83,
      "al": 84,
      "ro": 85,
      " an": 86,
      "ar": 87,
      "ed ": 88,
      "to": 89,
      "ic": 90,
      ". ": 91,
      "an": 92,
      "tion": 93,
      "ac": 94,
      "co": 95,
      "the ": 96,
      "el": 97,
      "ing ": 98,
      "es": 99,
      "  ": 100,
      "es ": 101,
      " and ": 102,
      "at": 103,
      "st": 104,
      "it": 105,
      " b": 106,
      " p": 107,
      "ci": 108,
      "ou": 109,
      "in ": 110,
      "ex": 111,
      "ib": 112,
      "ul": 113,
      "Th": 114,
      "ation": 115,
      "fic": 116,
      "al ": 117,
      "ig": 118,
      "ear": 119,
      " c": 120,
      " ac": 121,
      "ol": 122,
      "ec": 123,
      " s": 124,
      "pro": 125,
      "The ": 126,
      "men": 127,
      "ed": 128,
      "et": 129,
      "op": 130,
      "to ": 131,
      "res": 132,
      "ll": 133,
      "com": 134,
      ", ": 135,
      "ts ": 136,
      "of": 137,
      "ver": 138,
      "s a": 139,
      "ly ": 140,
      "rea": 141,
      "ell": 142,
      "for": 143,
      "ur": 144,
      "ho": 145,
      "st ": 146,
      "is ": 147,
      "gy ": 148,
      "int": 149,
      "onac": 150,
      "    ": 151,
      "ci(": 152,
      "ibonac": 153,
      "ibonacci(": 154,
      "un": 155,
      "s. ": 156,
      "con": 157,
      "ign": 158,
      "we": 159,
      "bl": 160,
      "ati": 161,
      "ific": 162,
      "wi": 163,
      " par": 164,
      "m ": 165,
      "ef": 166,
      "su": 167,
      "the c": 168,
      "enc": 169,
      "per": 170,
      "is": 171,
      "ma": 172,
      "ment": 173,
      ") ": 174,
      "_f": 175,
      "cul": 176,
      "e_f": 177,
      "if": 178,
      "oo": 179,
      "alcul": 180,
      "ate_f": 181,
      " calcul": 182,
      "ate_fibonacci(": 183,
      " calculate_fibonacci(": 184,
      "pl": 185,
      "ere": 186,
      "ve ": 187,
      "sign": 188,
      "th ": 189,
      "ros": 190,
      " acros": 191,
      "ifican": 192,
      "significan": 193,
      "il": 194,
      "ted ": 195,
      "im": 196,
      "abl": 197,
      "ew": 198,
      "new": 199,
      "able ": 200,
      "out": 201,
      "iti": 202,
      "h ": 203,
      "rep": 204,
      "ces": 205,
      "de": 206,
      "gre": 207,
      "ienc": 208,
      "du": 209,
      "for ": 210,
      "resul": 211,
      "year": 212,
      "prov": 213,
      "sy": 214,
      " parti": 215,
      "us": 216,
      "ent ": 217,
      "enti": 218,
      "ves ": 219,
      "\n    ": 220,
      "ener": 221,
      "out ": 222,
      "ook": 223,
      " calculate_fibonacci(n": 224,
      "energy ": 225,
      "ating ": 226,
      "igh": 227,
      "e and ": 228,
      "of ": 229,
      "lation": 230,
      "relation": 231,
      " bet": 232,
      "ween": 233,
      " between": 234,
      "min": 235,
      "met": 236,
      "comes ": 237,
      "significant ": 238,
      "outcomes ": 239,
      "hi": 240,
      "ity": 241,
      "ility": 242,
      "es and ": 243,
      "repor": 244,
      "mon": 245,
      "in the ": 246,
      "ata": 247,
      "pac": 248,
      "sib": 249,
      "en s": 250,
      "rop": 251,
      " acces": 252,
      "the cor": 253,
      " accessib": 254,
      "man": 255,
      "of c": 256,
      ". P": 257,
      "he": 258,
      "s, ": 259,
      "wing ": 260,
      "s all": 261,
      "with ": 262,
      "mental ": 263,
      " across all": 264,
      "improv": 265,
      "s, with ": 266,
      "fro": 267,
      "cip": 268,
      " particip": 269,
      "from ": 270,
      "% ": 271,
      "ag": 272,
      "cl": 273,
      "ial ": 274,
      "mar": 275,
      "ven": 276,
      "ficienc": 277,
      "efficienc": 278,
      "efficiency": 279,
      "ea": 280,
      "tre": 281,
      "nt": 282,
      "cienti": 283,
      " m": 284,
      "ical ": 285,
      "reak": 286,
      "duc": 287,
      "gin": 288,
      "aly": 289,
      " analy": 290,
      "exc": 291,
      "oper": 292,
      "ning": 293,
      "over": 294,
      "tr": 295,
      "e to ": 296,
      "tion ": 297,
      "ess ": 298,
      "earning": 299,
      "da": 300,
      "ogy ": 301,
      "ug": 302,
      "thro": 303,
      "sts a": 304,
      "ology ": 305,
      "hoto": 306,
      "throug": 307,
      "vel": 308,
      " and ex": 309,
      "devel": 310,
      "Its ": 311,
      "ner": 312,
      "y a": 313,
      "initi": 314,
      "reac": 315,
      "tim": 316,
      " bi": 317,
      "ed a": 318,
      "mak": 319,
      " n": 320,
      " int": 321,
      ")\n": 322,
      "10": 323,
      ":\n    ": 324,
      "= ": 325,
      "bout ": 326,
      "book": 327,
      "ding": 328,
      "ever": 329,
      "hed ": 330,
      "hel": 331,
      "tur": 332,
      " about ": 333,
      "retur": 334,
      "or ": 335,
      "stor": 336,
      "expl": 337,
      " calculate_fibonacci(n-": 338,
      "return": 339,
      "iz": 340,
      "ter": 341,
      " com": 342,
      "lan": 343,
      "ely ": 344,
      "hy": 345,
      "se and ": 346,
      "plex": 347,
      ", a": 348,
      "d a": 349,
      "e a": 350,
      "eac": 351,
      "it ": 352,
      "uth": 353,
      "ust ": 354,
      "the a": 355,
      "ed in ": 356,
      "each": 357,
      "hl": 358,
      "ligh": 359,
      "orop": 360,
      "hlorop": 361,
      ". The ": 362,
      "s.": 363,
      ". S": 364,
      " co": 365,
      " st": 366,
      " ur": 367,
      " gre": 368,
      ",5": 369,
      "-b": 370,
      "00": 371,
      "2,5": 372,
      "Data": 373,
      "amin": 374,
      "ban": 375,
      "cal": 376,
      "dy ": 377,
      "eing ": 378,
      "gg": 379,
      "k accessib": 380,
      "os": 381,
      "p between": 382,
      "pos": 383,
      "sti": 384,
      "sco": 385,
      "s acros": 386,
      "shi": 387,
      "tw": 388,
      "ts a": 389,
      "ts acros": 390,
      "udy ": 391,
      "well": 392,
      " area": 393,
      "s tw": 394,
      "ties ": 395,
      "alth ": 396,
      "ants acros": 397,
      "an area": 398,
      "elve ": 399,
      "ests a": 400,
      "es the cor": 401,
      " and repor": 402,
      "study ": 403,
      "itan area": 404,
      "cities ": 405,
      "in met": 406,
      "examin": 407,
      "This ": 408,
      "olitan area": 409,
      "ected ": 410,
      "llected ": 411,
      "ly significant ": 412,
      "s. The ": 413,
      "s. Data": 414,
      "atisti": 415,
      " park accessib": 416,
      "sugg": 417,
      "ve relation": 418,
      "ted well": 419,
      "itive relation": 420,
      "relation between": 421,
      "outcomes in met": 422,
      "ility and repor": 423,
      "es and mental ": 424,
      "paces and mental ": 425,
      "en spaces and mental ": 426,
      "ropolitan area": 427,
      "health ": 428,
      " participants acros": 429,
      "from 2,5": 430,
      " collected ": 431,
      " statisti": 432,
      " urban": 433,
      " green spaces and mental ": 434,
      "-being ": 435,
      "00 participants acros": 436,
      "cally significant ": 437,
      "p between park accessib": 438,
      "positive relation": 439,
      "scores": 440,
      "ship between park accessib": 441,
      "s twelve ": 442,
      "ests a statisti": 443,
      "es the correlation between": 444,
      "study examin": 445,
      "cities sugg": 446,
      "This study examin": 447,
      "s. Data collected ": 448,
      "ted well-being ": 449,
      "outcomes in metropolitan area": 450,
      "ility and reported well-being ": 451,
      "health outcomes in metropolitan area": 452,
      "from 2,500 participants acros": 453,
      " urban green spaces and mental ": 454,
      "cally significant positive relation": 455,
      "ship between park accessibility and reported well-being ": 456,
      "s twelve cities sugg": 457,
      "ests a statistically significant positive relation": 458,
      "es the correlation between urban green spaces and mental ": 459,
      "This study examines the correlation between urban green spaces and mental ": 460,
      "s. Data collected from 2,500 participants acros": 461,
      "health outcomes in metropolitan areas. Data collected from 2,500 participants acros": 462,
      "ship between park accessibility and reported well-being scores": 463,
      "s twelve cities suggests a statistically significant positive relation": 464,
      "This study examines the correlation between urban green spaces and mental health outcomes in metropolitan areas. Data collected from 2,500 participants acros": 465,
      "s twelve cities suggests a statistically significant positive relationship between park accessibility and reported well-being scores": 466,
      "This study examines the correlation between urban green spaces and mental health outcomes in metropolitan areas. Data collected from 2,500 participants across twelve cities suggests a statistically significant positive relationship between park accessibility and reported well-being scores": 467,
      "y. The ": 468,
      " tre": 469,
      "% s": 470,
      "78": 471,
      "as": 472,
      "de ": 473,
      "eable ": 474,
      "fi": 475,
      "fec": 476,
      "ide ": 477,
      "jor": 478,
      "l. P": 479,
      "mp": 480,
      "mis": 481,
      "ric": 482,
      "rat": 483,
      "rst ": 484,
      "wer": 485,
      "inical ": 486,
      "e min": 487,
      "red ": 488,
      "reduc": 489,
      "thin the ": 490,
      "th. S": 491,
      "t pro": 492,
      "y of c": 493,
      "al and ": 494,
      "ed pro": 495,
      "toco": 496,
      "tom ": 497,
      "the new": 498,
      "ing resul": 499,
      "atmen": 500,
      "strat": 501,
      "ity of c": 502,
      "ed across all": 503,
      "ts for ": 504,
      "ts wer": 505,
      "howing ": 506,
      "atient ": 507,
      "within the ": 508,
      "effec": 509,
      "sured ": 510,
      "major": 511,
      "imal and ": 512,
      "demon": 513,
      "symp": 514,
      "metric": 515,
      "significant symp": 516,
      "outcomes improv": 517,
      "month. S": 518,
      "in the major": 519,
      "manag": 520,
      "s, with 78": 521,
      "clinical ": 522,
      "ial demon": 523,
      "easured ": 524,
      " measured ": 525,
      "trial demon": 526,
      "tion within the ": 527,
      " treatmen": 528,
      "% showing ": 529,
      "ases": 530,
      "eable in the major": 531,
      "first ": 532,
      "ide effec": 533,
      "l. Patient ": 534,
      "mising resul": 535,
      "e minimal and ": 536,
      "reduction within the ": 537,
      "t protoco": 538,
      "ed promising resul": 539,
      "tom reduction within the ": 540,
      "the new treatmen": 541,
      "strated promising resul": 542,
      "ity of cases": 543,
      "ed across all measured ": 544,
      "ts for the new treatmen": 545,
      "ts were minimal and ": 546,
      "metrics, with 78": 547,
      "significant symptom reduction within the ": 548,
      "outcomes improved across all measured ": 549,
      "month. Side effec": 550,
      "manageable in the major": 551,
      "clinical trial demon": 552,
      "% showing significant symptom reduction within the ": 553,
      "first month. Side effec": 554,
      "l. Patient outcomes improved across all measured ": 555,
      "t protocol. Patient outcomes improved across all measured ": 556,
      "strated promising results for the new treatmen": 557,
      "ts were minimal and manageable in the major": 558,
      "metrics, with 78% showing significant symptom reduction within the ": 559,
      "clinical trial demonstrated promising results for the new treatmen": 560,
      "first month. Side effects were minimal and manageable in the major": 561,
      "t protocol. Patient outcomes improved across all measured metrics, with 78% showing significant symptom reduction within the ": 562,
      "clinical trial demonstrated promising results for the new treatment protocol. Patient outcomes improved across all measured metrics, with 78% showing significant symptom reduction within the ": 563,
      "first month. Side effects were minimal and manageable in the majority of cases": 564,
      "clinical trial demonstrated promising results for the new treatment protocol. Patient outcomes improved across all measured metrics, with 78% showing significant symptom reduction within the first month. Side effects were minimal and manageable in the majority of cases": 565,
      " d": 566,
      " the ": 567,
      "47": 568,
      "aic": 569,
      "ail": 570,
      "ce ": 571,
      "cur": 572,
      "ch ": 573,
      "ced a": 574,
      "dou": 575,
      "eves ": 576,
      "fac": 577,
      "hn": 578,
      "ket": 579,
      "ly a": 580,
      "nou": 581,
      "near": 582,
      "nced a": 583,
      "tec": 584,
      "taic": 585,
      "vol": 586,
      "vail": 587,
      "renew": 588,
      "rent": 589,
      "s cur": 590,
      "onven": 591,
      "on the ": 592,
      "t the ": 593,
      "al p": 594,
      " annou": 595,
      "ar p": 596,
      "toda": 597,
      "anel": 598,
      "tional p": 599,
      "the per": 600,
      "ing the per": 601,
      "esign": 602,
      " break": 603,
      "in renew": 604,
      "earch ": 605,
      " cell": 606,
      " achi": 607,
      "olar p": 608,
      " solar p": 609,
      "research ": 610,
      ", near": 611,
      "ly dou": 612,
      "forman": 613,
      "bling the per": 614,
      "new solar p": 615,
      "able energy ": 616,
      "able on the ": 617,
      "h in renew": 618,
      "ility annou": 619,
      "of conven": 620,
      "% efficiency": 621,
      "market": 622,
      "cientists a": 623,
      "ology toda": 624,
      "hotovol": 625,
      "through in renew": 626,
      "y. The new solar p": 627,
      " design": 628,
      "47% efficiency": 629,
      "ce of conven": 630,
      "eves 47% efficiency": 631,
      "facility annou": 632,
      "hnology toda": 633,
      "ly avail": 634,
      "nced a break": 635,
      "technology toda": 636,
      "taic cell": 637,
      "rently avail": 638,
      "s currently avail": 639,
      "t the research ": 640,
      "anel design": 641,
      "tional photovol": 642,
      " achieves 47% efficiency": 643,
      ", nearly dou": 644,
      "formance of conven": 645,
      "bling the performance of conven": 646,
      "able energy technology toda": 647,
      "able on the market": 648,
      "cientists at the research ": 649,
      "through in renewable energy technology toda": 650,
      "y. The new solar panel design": 651,
      "facility announced a break": 652,
      "taic cells currently avail": 653,
      "tional photovoltaic cells currently avail": 654,
      " achieves 47% efficiency, nearly dou": 655,
      "bling the performance of conventional photovoltaic cells currently avail": 656,
      "cientists at the research facility announced a break": 657,
      "through in renewable energy technology today. The new solar panel design": 658,
      " achieves 47% efficiency, nearly doubling the performance of conventional photovoltaic cells currently avail": 659,
      "cientists at the research facility announced a breakthrough in renewable energy technology today. The new solar panel design": 660,
      " achieves 47% efficiency, nearly doubling the performance of conventional photovoltaic cells currently available on the market": 661,
      "cientists at the research facility announced a breakthrough in renewable energy technology today. The new solar panel design achieves 47% efficiency, nearly doubling the performance of conventional photovoltaic cells currently available on the market": 662,
      " to ": 663,
      " initi": 664,
      "$4": 665,
      "-year": 666,
      "-over": 667,
      ".8": 668,
      "23": 669,
      "Oper": 670,
      "crea": 671,
      "eed": 672,
      "gro": 673,
      "ion": 674,
      "pec": 675,
      "qu": 676,
      "sed ": 677,
      "tation": 678,
      "tly ": 679,
      "ue ": 680,
      "ves and ": 681,
      "iness ": 682,
      "increa": 683,
      "reven": 684,
      "s repor": 685,
      "s improv": 686,
      "t exc": 687,
      "arter": 688,
      "ed significan": 689,
      ". Oper": 690,
      "cost ": 691,
      " bus": 692,
      "expec": 693,
      "ational ": 694,
      "ation initi": 695,
      "ed analy": 696,
      "optim": 697,
      "llion": 698,
      "ly earning": 699,
      "st expec": 700,
      "unit": 701,
      "atives and ": 702,
      "h $4": 703,
      "due to ": 704,
      "year-over": 705,
      "ating mar": 706,
      "wing 23": 707,
      " across all bus": 708,
      "s, with reven": 709,
      "% year-over": 710,
      "efficiency across all bus": 711,
      "gins improv": 712,
      "operational ": 713,
      "reach $4": 714,
      " billion": 715,
      "ization initi": 716,
      " to reach $4": 717,
      "-year to reach $4": 718,
      ".8 billion": 719,
      "eeded analy": 720,
      "growing 23": 721,
      "quarter": 722,
      "sed operational ": 723,
      "tations, with reven": 724,
      "tly due to ": 725,
      "ue growing 23": 726,
      "iness unit": 727,
      "increased operational ": 728,
      "s report exc": 729,
      "ed significantly due to ": 730,
      ". Operating mar": 731,
      "cost optim": 732,
      "ly earnings report exc": 733,
      "st expectations, with reven": 734,
      "atives and increased operational ": 735,
      "% year-over-year to reach $4": 736,
      "efficiency across all business unit": 737,
      "gins improved significantly due to ": 738,
      "ization initiatives and increased operational ": 739,
      ".8 billion. Operating mar": 740,
      "eeded analyst expectations, with reven": 741,
      "quarterly earnings report exc": 742,
      "ue growing 23% year-over-year to reach $4": 743,
      "cost optimization initiatives and increased operational ": 744,
      "gins improved significantly due to cost optimization initiatives and increased operational ": 745,
      ".8 billion. Operating margins improved significantly due to cost optimization initiatives and increased operational ": 746,
      "eeded analyst expectations, with revenue growing 23% year-over-year to reach $4": 747,
      "quarterly earnings report exceeded analyst expectations, with revenue growing 23% year-over-year to reach $4": 748,
      ".8 billion. Operating margins improved significantly due to cost optimization initiatives and increased operational efficiency across all business unit": 749,
      "quarterly earnings report exceeded analyst expectations, with revenue growing 23% year-over-year to reach $4.8 billion. Operating margins improved significantly due to cost optimization initiatives and increased operational efficiency across all business unit": 750,
      " exc": 751,
      " devel": 752,
      ", and ": 753,
      "Py": 754,
      "am": 755,
      "ax": 756,
      "b devel": 757,
      "cho": 758,
      "data": 759,
      "dely ": 760,
      "eco": 761,
      "em ": 762,
      "egin": 763,
      "e, and ": 764,
      "gr": 765,
      "gu": 766,
      "ive ": 767,
      "lib": 768,
      "ming ": 769,
      "oth": 770,
      "pu": 771,
      "rti": 772,
      "rar": 773,
      "sis": 774,
      "scienti": 775,
      "s and ex": 776,
      "sive ": 777,
      "ten": 778,
      "ting": 779,
      "ynt": 780,
      "e it": 781,
      "e for": 782,
      "e is ": 783,
      "thon": 784,
      "y eco": 785,
      "rogr": 786,
      " an exc": 787,
      "ed for ": 788,
      "ed devel": 789,
      "ice for": 790,
      ". Its ": 791,
      "stem ": 792,
      " begin": 793,
      " both": 794,
      " progr": 795,
      "ficial ": 796,
      "fic com": 797,
      "igenc": 798,
      "ear s": 799,
      "opment": 800,
      ", data": 801,
      "ellent ": 802,
      "elligenc": 803,
      "intelligenc": 804,
      "web devel": 805,
      "widely ": 806,
      "perienc": 807,
      "system ": 808,
      "used for ": 809,
      "age is ": 810,
      "clear s": 811,
      " analysis": 812,
      " and exten": 813,
      "ners and ex": 814,
      "make it": 815,
      "langu": 816,
      ", arti": 817,
      "This study examines the correlation between urban green spaces and mental health outcomes in metropolitan areas. Data collected from 2,500 participants across twelve cities suggests a statistically significant positive relationship between park accessibility and reported well-being scores.": 818,
      "Python": 819,
      "amming ": 820,
      "ax and exten": 821,
      "choice for": 822,
      "e, and scienti": 823,
      "librar": 824,
      "puting": 825,
      "sive librar": 826,
      "yntax and exten": 827,
      "y ecosystem ": 828,
      " an excellent ": 829,
      "ed developer": 830,
      ". Its clear s": 831,
      " beginners and ex": 832,
      " both beginners and ex": 833,
      " programming ": 834,
      "ficial intelligenc": 835,
      "fic computing": 836,
      "opment, data": 837,
      "web development, data": 838,
      "widely used for ": 839,
      "perienced developer": 840,
      "age is widely used for ": 841,
      " analysis, arti": 842,
      "make it an excellent ": 843,
      "language is widely used for ": 844,
      "Python programming ": 845,
      "choice for both beginners and ex": 846,
      "e, and scientific computing": 847,
      "sive library ecosystem ": 848,
      "yntax and extensive library ecosystem ": 849,
      ". Its clear syntax and extensive library ecosystem ": 850,
      "ficial intelligence, and scientific computing": 851,
      "web development, data analysis, arti": 852,
      "make it an excellent choice for both beginners and ex": 853,
      "language is widely used for web development, data analysis, arti": 854,
      "Python programming language is widely used for web development, data analysis, arti": 855,
      ". Its clear syntax and extensive library ecosystem make it an excellent choice for both beginners and ex": 856,
      "ficial intelligence, and scientific computing. Its clear syntax and extensive library ecosystem make it an excellent choice for both beginners and ex": 857,
      "Python programming language is widely used for web development, data analysis, artificial intelligence, and scientific computing. Its clear syntax and extensive library ecosystem make it an excellent choice for both beginners and ex": 858,
      "Python programming language is widely used for web development, data analysis, artificial intelligence, and scientific computing. Its clear syntax and extensive library ecosystem make it an excellent choice for both beginners and experienced developer": 859,
      "\nresul": 860,
      " <": 861,
      " f": 862,
      " y": 863,
      " The ": 864,
      " of": 865,
      " the c": 866,
      " of ": 867,
      "! The ": 868,
      "'F": 869,
      "'r": 870,
      "(f": 871,
      "+ calculate_fibonacci(n-": 872,
      "->": 873,
      "1) ": 874,
      "1:\n    ": 875,
      "2)\n": 876,
      ": int": 877,
      "= calculate_fibonacci(": 878,
      "High": 879,
      "Just ": 880,
      "Ma": 881,
      "Stre": 882,
      "ain": 883,
      "ath": 884,
      "ay ": 885,
      "aper": 886,
      "ce": 887,
      "ch": 888,
      "do": 889,
      "def": 890,
      "dif": 891,
      "den s": 892,
      "ds. The ": 893,
      "et ": 894,
      "e. ": 895,
      "fin": 896,
      "fere": 897,
      "ged ": 898,
      "ies": 899,
      "iver": 900,
      "king ": 901,
      "lac": 902,
      "lea": 903,
      "le to ": 904,
      "less ": 905,
      "learning": 906,
      "lds. The ": 907,
      "mell": 908,
      "nt ": 909,
      "od a": 910,
      "pr": 911,
      "pts ": 912,
      "paper": 913,
      "r p": 914,
      "sto": 915,
      "sic": 916,
      "spac": 917,
      "smell": 918,
      "t}": 919,
      "ty ": 920,
      "tal ": 921,
      "tless ": 922,
      "vis": 923,
      "wor": 924,
      "who": 925,
      "woo": 926,
      "way ": 927,
      "yon": 928,
      "zing ": 929,
      "{resul": 930,
      " ast": 931,
      " a p": 932,
      " ama": 933,
      " aged ": 934,
      "inding": 935,
      "e in ": 936,
      "e int": 937,
      "e expl": 938,
      "e sto": 939,
      "recom": 940,
      "s com": 941,
      "s con": 942,
      "s gre": 943,
      "d co": 944,
      "d book": 945,
      "d ch": 946,
      "d woo": 947,
      "ther": 948,
      "en the c": 949,
      "t the cor": 950,
      "t = calculate_fibonacci(": 951,
      "oration": 952,
      "ortal ": 953,
      "y vis": 954,
      " an ama": 955,
      "ed ever": 956,
      "the un": 957,
      "ing do": 958,
      "es it": 959,
      " and lea": 960,
      "sted in ": 961,
      "itor ": 962,
      " book": 963,
      " binding": 964,
      " pus": 965,
      "ou'r": 966,
      "our p": 967,
      "in Stre": 968,
      "old book": 969,
      "ecking ": 970,
      "mend ch": 971,
      "eted ever": 972,
      "open the c": 973,
      "to dif": 974,
      ", each": 975,
      "ly recom": 976,
      "reading": 977,
      "int(f": 978,
      "    return": 979,
      "ibonacci(10": 980,
      "untless ": 981,
      "s. Its ": 982,
      "weath": 983,
      "ished ": 984,
      ") = ": 985,
      ") ->": 986,
      "if n": 987,
      "if y": 988,
      "ifty ": 989,
      "ered woo": 990,
      "erested in ": 991,
      "for over": 992,
      "years. Its ": 993,
      "ves hel": 994,
      "\n    return": 995,
      "out if y": 996,
      " calculate_fibonacci(n: int": 997,
      "rophy": 998,
      " accessible to ": 999,
      "reaking do": 1000,
      "ner of ": 1001,
      "makes it": 1002,
      " n\n    return": 1003,
      " int:\n    ": 1004,
      ")\npr": 1005,
      "10)\npr": 1006,
      "= 1:\n    ": 1007,
      "book about ": 1008,
      "everyon": 1009,
      "hed open the c": 1010,
      "helves hel": 1011,
      " about the un": 1012,
      "or expl": 1013,
      "stories": 1014,
      "store sto": 1015,
      " calculate_fibonacci(n-1) ": 1016,
      "se and our p": 1017,
      "plex ast": 1018,
      "it out if y": 1019,
      "uthor expl": 1020,
      "the author expl": 1021,
      "\nresult = calculate_fibonacci(": 1022,
      " <= 1:\n    ": 1023,
      " fifty ": 1024,
      " of aged ": 1025,
      "! The way ": 1026,
      "'Fibonacci(10": 1027,
      "+ calculate_fibonacci(n-2)\n": 1028,
      "Highly recom": 1029,
      "Just fin": 1030,
      "Main Stre": 1031,
      "ains com": 1032,
      "cepts ": 1033,
      "def calculate_fibonacci(n: int": 1034,
      "den shelves hel": 1035,
      "et for over": 1036,
      "e. Highly recom": 1037,
      "ferent ": 1038,
      "iverse and our p": 1039,
      "lace in ": 1040,
      "learning about the un": 1041,
      "lds. The smell": 1042,
      "od at the cor": 1043,
      "paper and lea": 1044,
      "sics con": 1045,
      "space expl": 1046,
      "t}'": 1047,
      "worlds. The smell": 1048,
      "who pus": 1049,
      "zing book about ": 1050,
      "{result}'": 1051,
      " a portal ": 1052,
      "e interested in ": 1053,
      "s greeted ever": 1054,
      "d countless ": 1055,
      "ther binding": 1056,
      "oration! The way ": 1057,
      "y visitor ": 1058,
      " an amazing book about ": 1059,
      " book a portal ": 1060,
      "ou're interested in ": 1061,
      "old bookstore sto": 1062,
      "ecking it out if y": 1063,
      "mend checking it out if y": 1064,
      "to different ": 1065,
      ", each book a portal ": 1066,
      "reading an amazing book about ": 1067,
      "int(f'Fibonacci(10": 1068,
      "    return n\n    return": 1069,
      "weathered woo": 1070,
      "ished reading an amazing book about ": 1071,
      ") = {result}'": 1072,
      ") -> int:\n    ": 1073,
      "if n <= 1:\n    ": 1074,
      "years. Its weathered woo": 1075,
      "rophysics con": 1076,
      " accessible to everyon": 1077,
      "reaking door": 1078,
      "ner of Main Stre": 1079,
      "makes it accessible to everyon": 1080,
      "10)\nprint(f'Fibonacci(10": 1081,
      "hed open the creaking door": 1082,
      "stories, each book a portal ": 1083,
      " calculate_fibonacci(n-1) + calculate_fibonacci(n-2)\n": 1084,
      "plex astrophysics con": 1085,
      "the author explains com": 1086,
      "\nresult = calculate_fibonacci(10)\nprint(f'Fibonacci(10": 1087,
      " fifty years. Its weathered woo": 1088,
      " of aged paper and lea": 1089,
      "Just finished reading an amazing book about ": 1090,
      "cepts makes it accessible to everyon": 1091,
      "def calculate_fibonacci(n: int) -> int:\n    ": 1092,
      "den shelves held countless ": 1093,
      "et for over fifty years. Its weathered woo": 1094,
      "e. Highly recommend checking it out if y": 1095,
      "iverse and our place in ": 1096,
      "learning about the universe and our place in ": 1097,
      "od at the corner of Main Stre": 1098,
      "space exploration! The way ": 1099,
      "worlds. The smell of aged paper and lea": 1100,
      "who pushed open the creaking door": 1101,
      "s greeted every visitor ": 1102,
      "ther bindings greeted every visitor ": 1103,
      "ou're interested in learning about the universe and our place in ": 1104,
      "old bookstore stood at the corner of Main Stre": 1105,
      "to different worlds. The smell of aged paper and lea": 1106,
      "    return n\n    return calculate_fibonacci(n-1) + calculate_fibonacci(n-2)\n": 1107,
      "if n <= 1:\n        return n\n    return calculate_fibonacci(n-1) + calculate_fibonacci(n-2)\n": 1108,
      "stories, each book a portal to different worlds. The smell of aged paper and lea": 1109,
      "plex astrophysics concepts makes it accessible to everyon": 1110,
      "the author explains complex astrophysics concepts makes it accessible to everyon": 1111,
      "\nresult = calculate_fibonacci(10)\nprint(f'Fibonacci(10) = {result}'": 1112,
      "Just finished reading an amazing book about space exploration! The way ": 1113,
      "def calculate_fibonacci(n: int) -> int:\n    if n <= 1:\n        return n\n    return calculate_fibonacci(n-1) + calculate_fibonacci(n-2)\n": 1114,
      "den shelves held countless stories, each book a portal to different worlds. The smell of aged paper and lea": 1115,
      "et for over fifty years. Its weathered wooden shelves held countless stories, each book a portal to different worlds. The smell of aged paper and lea": 1116,
      "e. Highly recommend checking it out if you're interested in learning about the universe and our place in ": 1117,
      "ther bindings greeted every visitor who pushed open the creaking door": 1118,
      "old bookstore stood at the corner of Main Street for over fifty years. Its weathered wooden shelves held countless stories, each book a portal to different worlds. The smell of aged paper and lea": 1119,
      "the author explains complex astrophysics concepts makes it accessible to everyone. Highly recommend checking it out if you're interested in learning about the universe and our place in ": 1120,
      "Just finished reading an amazing book about space exploration! The way the author explains complex astrophysics concepts makes it accessible to everyone. Highly recommend checking it out if you're interested in learning about the universe and our place in ": 1121,
      "def calculate_fibonacci(n: int) -> int:\n    if n <= 1:\n        return n\n    return calculate_fibonacci(n-1) + calculate_fibonacci(n-2)\n\nresult = calculate_fibonacci(10)\nprint(f'Fibonacci(10) = {result}'": 1122,
      "old bookstore stood at the corner of Main Street for over fifty years. Its weathered wooden shelves held countless stories, each book a portal to different worlds. The smell of aged paper and leather bindings greeted every visitor who pushed open the creaking door": 1123,
      "Just finished reading an amazing book about space exploration! The way the author explains complex astrophysics concepts makes it accessible to everyone. Highly recommend checking it out if you're interested in learning about the universe and our place in it": 1124,
      "Chlorop": 1125,
      "Scientists at the research facility announced a breakthrough in renewable energy technology today. The new solar panel design achieves 47% efficiency, nearly doubling the performance of conventional photovoltaic cells currently available on the market": 1126,
      "Un": 1127,
      "at ": 1128,
      "asts a": 1129,
      "bs": 1130,
      "b s": 1131,
      "cation": 1132,
      "der": 1133,
      "ding ": 1134,
      "fun": 1135,
      "gl": 1136,
      "gen": 1137,
      "h a": 1138,
      "ies ": 1139,
      "lasts a": 1140,
      "mical ": 1141,
      "nth": 1142,
      "ox": 1143,
      "photo": 1144,
      "t, ": 1145,
      "uco": 1146,
      "ucation": 1147,
      "ygen": 1148,
      "into": 1149,
      "s th": 1150,
      "t energy ": 1151,
      "t ligh": 1152,
      "eries ": 1153,
      "orb s": 1154,
      "to bi": 1155,
      "anding ": 1156,
      "tions. ": 1157,
      "the pro": 1158,
      "esis ": 1159,
      "es in ": 1160,
      "es gl": 1161,
      "ately ": 1162,
      "standing ": 1163,
      "ultim": 1164,
      "ules in ": 1165,
      " che": 1166,
      "olec": 1167,
      " series ": 1168,
      "produc": 1169,
      "education": 1170,
      "ll m": 1171,
      "ts con": 1172,
      "vert ligh": 1173,
      "is fun": 1174,
      "unligh": 1175,
      "the chlorop": 1176,
      "cess th": 1177,
      "synth": 1178,
      "energy throug": 1179,
      "ating the pro": 1180,
      "of reac": 1181,
      ". Plan": 1182,
      "mental to bi": 1183,
      "damental to bi": 1184,
      "ology education": 1185,
      "initiating the pro": 1186,
      " complex": 1187,
      "hyll m": 1188,
      "se and ox": 1189,
      "Chlorophyll m": 1190,
      "Under": 1191,
      "at ultim": 1192,
      "bsorb s": 1193,
      "h a complex": 1194,
      "lasts absorb s": 1195,
      "mical energy throug": 1196,
      "photosynth": 1197,
      "t, initiating the pro": 1198,
      "ucose and ox": 1199,
      "into che": 1200,
      "t energy into che": 1201,
      "tions. Chlorophyll m": 1202,
      "esis is fun": 1203,
      "es glucose and ox": 1204,
      "ately produc": 1205,
      "standing photosynth": 1206,
      "ules in the chlorop": 1207,
      "olecules in the chlorop": 1208,
      " series of reac": 1209,
      "ts convert ligh": 1210,
      "unlight, initiating the pro": 1211,
      "cess that ultim": 1212,
      ". Plants convert ligh": 1213,
      "damental to biology education": 1214,
      "Understanding photosynth": 1215,
      "h a complex series of reac": 1216,
      "lasts absorb sunlight, initiating the pro": 1217,
      "mical energy through a complex series of reac": 1218,
      "t energy into chemical energy through a complex series of reac": 1219,
      "tions. Chlorophyll molecules in the chlorop": 1220,
      "esis is fundamental to biology education": 1221,
      "es glucose and oxygen": 1222,
      "ately produces glucose and oxygen": 1223,
      "cess that ultimately produces glucose and oxygen": 1224,
      ". Plants convert light energy into chemical energy through a complex series of reac": 1225,
      "Understanding photosynthesis is fundamental to biology education": 1226,
      "lasts absorb sunlight, initiating the process that ultimately produces glucose and oxygen": 1227,
      "tions. Chlorophyll molecules in the chloroplasts absorb sunlight, initiating the process that ultimately produces glucose and oxygen": 1228,
      ". Plants convert light energy into chemical energy through a complex series of reactions. Chlorophyll molecules in the chloroplasts absorb sunlight, initiating the process that ultimately produces glucose and oxygen": 1229,
      "Understanding photosynthesis is fundamental to biology education. Plants convert light energy into chemical energy through a complex series of reactions. Chlorophyll molecules in the chloroplasts absorb sunlight, initiating the process that ultimately produces glucose and oxygen": 1230,
      "The quarterly earnings report exceeded analyst expectations, with revenue growing 23% year-over-year to reach $4.8 billion. Operating margins improved significantly due to cost optimization initiatives and increased operational efficiency across all business unit": 1231,
      "The clinical trial demonstrated promising results for the new treatment protocol. Patient outcomes improved across all measured metrics, with 78% showing significant symptom reduction within the first month. Side effects were minimal and manageable in the majority of cases": 1232,
      "(b": 1233,
      "12": 1234,
      "An": 1235,
      "A. ": 1236,
      "Ex": 1237,
      "Sec": 1238,
      "bm": 1239,
      "by": 1240,
      "be ": 1241,
      "by a": 1242,
      "di": 1243,
      "dific": 1244,
      "ement": 1245,
      "fo": 1246,
      "ge and ": 1247,
      "hib": 1248,
      "here": 1249,
      "kn": 1250,
      "lin": 1251,
      "led": 1252,
      "mo": 1253,
      "ms": 1254,
      "must ": 1255,
      "ow": 1256,
      "pprov": 1257,
      "rit": 1258,
      "sent ": 1259,
      "tati": 1260,
      "writ": 1261,
      "remen": 1262,
      "s to ": 1263,
      "s out": 1264,
      "this ": 1265,
      "entati": 1266,
      "t to ": 1267,
      "t must ": 1268,
      "oriz": 1269,
      "y mo": 1270,
      "ing an": 1271,
      "ed rep": 1272,
      "ed by a": 1273,
      "ant to ": 1274,
      "tioned a": 1275,
      "tions out": 1276,
      "act must ": 1277,
      "the ter": 1278,
      "es here": 1279,
      " and con": 1280,
      "itted ": 1281,
      "in writ": 1282,
      "ations to ": 1283,
      " ackn": 1284,
      "to the ter": 1285,
      "resentati": 1286,
      "ll parti": 1287,
      "ursu": 1288,
      "contr": 1289,
      "consent ": 1290,
      "subm": 1291,
      ") of ": 1292,
      "greement": 1293,
      "entit": 1294,
      "ves from ": 1295,
      "ating entit": 1296,
      " participating entit": 1297,
      "tion 12": 1298,
      ", all parti": 1299,
      "d approv": 1300,
      "it A. ": 1301,
      "uthoriz": 1302,
      "the afo": 1303,
      "ed in Ex": 1304,
      "each participating entit": 1305,
      "(b) of ": 1306,
      "Any mo": 1307,
      "Section 12": 1308,
      "by ackn": 1309,
      "be subm": 1310,
      "ditions out": 1311,
      "difications to ": 1312,
      "ge and consent ": 1313,
      "hibit A. ": 1314,
      "lined in Ex": 1315,
      "ledge and consent ": 1316,
      "ms and con": 1317,
      "owledge and consent ": 1318,
      "rementioned a": 1319,
      "this contr": 1320,
      "ing and approv": 1321,
      "ed representati": 1322,
      "ed by authoriz": 1323,
      "ant to Section 12": 1324,
      "act must be subm": 1325,
      "es hereby ackn": 1326,
      "itted in writ": 1327,
      "to the terms and con": 1328,
      "ursuant to Section 12": 1329,
      "greement, all parti": 1330,
      "ves from each participating entit": 1331,
      "the aforementioned a": 1332,
      "(b) of the aforementioned a": 1333,
      "Any modifications to ": 1334,
      "ditions outlined in Ex": 1335,
      "hibit A. Any modifications to ": 1336,
      "owledge and consent to the terms and con": 1337,
      "this contract must be subm": 1338,
      "ing and approved by authoriz": 1339,
      "ed representatives from each participating entit": 1340,
      "es hereby acknowledge and consent to the terms and con": 1341,
      "itted in writing and approved by authoriz": 1342,
      "ursuant to Section 12(b) of the aforementioned a": 1343,
      "greement, all parties hereby acknowledge and consent to the terms and con": 1344,
      "ditions outlined in Exhibit A. Any modifications to ": 1345,
      "this contract must be submitted in writing and approved by authoriz": 1346,
      "ursuant to Section 12(b) of the aforementioned agreement, all parties hereby acknowledge and consent to the terms and con": 1347,
      "ditions outlined in Exhibit A. Any modifications to this contract must be submitted in writing and approved by authoriz": 1348,
      "ursuant to Section 12(b) of the aforementioned agreement, all parties hereby acknowledge and consent to the terms and conditions outlined in Exhibit A. Any modifications to this contract must be submitted in writing and approved by authoriz": 1349,
      "ursuant to Section 12(b) of the aforementioned agreement, all parties hereby acknowledge and consent to the terms and conditions outlined in Exhibit A. Any modifications to this contract must be submitted in writing and approved by authorized representatives from each participating entit": 1350,
      "The Python programming language is widely used for web development, data analysis, artificial intelligence, and scientific computing. Its clear syntax and extensive library ecosystem make it an excellent choice for both beginners and experienced developer": 1351,
      "Understanding photosynthesis is fundamental to biology education. Plants convert light energy into chemical energy through a complex series of reactions. Chlorophyll molecules in the chloroplasts absorb sunlight, initiating the process that ultimately produces glucose and oxygen.": 1352,
      "Just finished reading an amazing book about space exploration! The way the author explains complex astrophysics concepts makes it accessible to everyone. Highly recommend checking it out if you're interested in learning about the universe and our place in it.": 1353,
      "old bookstore stood at the corner of Main Street for over fifty years. Its weathered wooden shelves held countless stories, each book a portal to different worlds. The smell of aged paper and leather bindings greeted every visitor who pushed open the creaking door.": 1354,
      "ursuant to Section 12(b) of the aforementioned agreement, all parties hereby acknowledge and consent to the terms and conditions outlined in Exhibit A. Any modifications to this contract must be submitted in writing and approved by authorized representatives from each participating entity": 1355,
      "def calculate_fibonacci(n: int) -> int:\n    if n <= 1:\n        return n\n    return calculate_fibonacci(n-1) + calculate_fibonacci(n-2)\n\nresult = calculate_fibonacci(10)\nprint(f'Fibonacci(10) = {result}')": 1356,
      "Scientists at the research facility announced a breakthrough in renewable energy technology today. The new solar panel design achieves 47% efficiency, nearly doubling the performance of conventional photovoltaic cells currently available on the market.": 1357,
      "Pursuant to Section 12(b) of the aforementioned agreement, all parties hereby acknowledge and consent to the terms and conditions outlined in Exhibit A. Any modifications to this contract must be submitted in writing and approved by authorized representatives from each participating entity": 1358,
      "The clinical trial demonstrated promising results for the new treatment protocol. Patient outcomes improved across all measured metrics, with 78% showing significant symptom reduction within the first month. Side effects were minimal and manageable in the majority of cases.": 1359,
      "The quarterly earnings report exceeded analyst expectations, with revenue growing 23% year-over-year to reach $4.8 billion. Operating margins improved significantly due to cost optimization initiatives and increased operational efficiency across all business units.": 1360,
      "The old bookstore stood at the corner of Main Street for over fifty years. Its weathered wooden shelves held countless stories, each book a portal to different worlds. The smell of aged paper and leather bindings greeted every visitor who pushed open the creaking door.": 1361,
      "The Python programming language is widely used for web development, data analysis, artificial intelligence, and scientific computing. Its clear syntax and extensive library ecosystem make it an excellent choice for both beginners and experienced developers.": 1362,
      "Pursuant to Section 12(b) of the aforementioned agreement, all parties hereby acknowledge and consent to the terms and conditions outlined in Exhibit A. Any modifications to this contract must be submitted in writing and approved by authorized representatives from each participating entity.": 1363,
      "The quarterly earnings report exceeded analyst expectations, with revenue growing 23% year-over-year to reach $4.8 billion. Operating margins improved significantly due to cost optimization initiatives and increased operational efficiency across all business units. ": 1364,
      "clinical trial demonstrated promising results for the new treatment protocol. Patient outcomes improved across all measured metrics, with 78% showing significant symptom reduction within the first month. Side effects were minimal and manageable in the majority of cases.": 1365,
      "def calculate_fibonacci(n: int) -> int:\n    if n <= 1:\n        return n\n    return calculate_fibonacci(n-1) + calculate_fibonacci(n-2)\n\nresult = calculate_fibonacci(10)\nprint(f'Fibonacci(10) = {result}') ": 1366,
      ". This study examines the correlation between urban green spaces and mental health outcomes in metropolitan areas. Data collected from 2,500 participants across twelve cities suggests a statistically significant positive relationship between park accessibility and reported well-being scores.": 1367,
      "The old bookstore stood at the corner of Main Street for over fifty years. Its weathered wooden shelves held countless stories, each book a portal to different worlds. The smell of aged paper and leather bindings greeted every visitor who pushed open the creaking door": 1368,
      "The Python programming language is widely used for web development, data analysis, artificial intelligence, and scientific computing. Its clear syntax and extensive library ecosystem make it an excellent choice for both beginners and experienced developers. The ": 1369,
      ". Understanding photosynthesis is fundamental to biology education. Plants convert light energy into chemical energy through a complex series of reactions. Chlorophyll molecules in the chloroplasts absorb sunlight, initiating the process that ultimately produces glucose and oxygen.": 1370,
      ". The clinical trial demonstrated promising results for the new treatment protocol. Patient outcomes improved across all measured metrics, with 78% showing significant symptom reduction within the first month. Side effects were minimal and manageable in the majority of cases.": 1371,
      ". Scientists at the research facility announced a breakthrough in renewable energy technology today. The new solar panel design achieves 47% efficiency, nearly doubling the performance of conventional photovoltaic cells currently available on the market": 1372,
      "Python programming language is widely used for web development, data analysis, artificial intelligence, and scientific computing. Its clear syntax and extensive library ecosystem make it an excellent choice for both beginners and experienced developers.": 1373,
      ". Scientists at the research facility announced a breakthrough in renewable energy technology today. The new solar panel design achieves 47% efficiency, nearly doubling the performance of conventional photovoltaic cells currently available on the market.": 1374,
      ". def calculate_fibonacci(n: int) -> int:\n    if n <= 1:\n        return n\n    return calculate_fibonacci(n-1) + calculate_fibonacci(n-2)\n\nresult = calculate_fibonacci(10)\nprint(f'Fibonacci(10) = {result}')": 1375,
      "The Python programming language is widely used for web development, data analysis, artificial intelligence, and scientific computing. Its clear syntax and extensive library ecosystem make it an excellent choice for both beginners and experienced developers. ": 1376,
      ". Just finished reading an amazing book about space exploration! The way the author explains complex astrophysics concepts makes it accessible to everyone. Highly recommend checking it out if you're interested in learning about the universe and our place in it.": 1377,
      ". Pursuant to Section 12(b) of the aforementioned agreement, all parties hereby acknowledge and consent to the terms and conditions outlined in Exhibit A. Any modifications to this contract must be submitted in writing and approved by authorized representatives from each participating entity": 1378,
      ". The old bookstore stood at the corner of Main Street for over fifty years. Its weathered wooden shelves held countless stories, each book a portal to different worlds. The smell of aged paper and leather bindings greeted every visitor who pushed open the creaking door.": 1379,
      "quarterly earnings report exceeded analyst expectations, with revenue growing 23% year-over-year to reach $4.8 billion. Operating margins improved significantly due to cost optimization initiatives and increased operational efficiency across all business units.": 1380,
      ". Pursuant to Section 12(b) of the aforementioned agreement, all parties hereby acknowledge and consent to the terms and conditions outlined in Exhibit A. Any modifications to this contract must be submitted in writing and approved by authorized representatives from each participating entity.": 1381,
      "The quarterly earnings report exceeded analyst expectations, with revenue growing 23% year-over-year to reach $4.8 billion. Operating margins improved significantly due to cost optimization initiatives and increased operational efficiency across all business units. The ": 1382,
      "Pursuant to Section 12(b) of the aforementioned agreement, all parties hereby acknowledge and consent to the terms and conditions outlined in Exhibit A. Any modifications to this contract must be submitted in writing and approved by authorized representatives from each participating entit": 1383,
      "Pursuant to Section 12(b) of the aforementioned agreement, all parties hereby acknowledge and consent to the terms and conditions outlined in Exhibit A. Any modifications to this contract must be submitted in writing and approved by authorized representatives from each participating entity. The ": 1384,
      "The quarterly earnings report exceeded analyst expectations, with revenue growing 23% year-over-year to reach $4.8 billion. Operating margins improved significantly due to cost optimization initiatives and increased operational efficiency across all business units. This study examines the correlation between urban green spaces and mental health outcomes in metropolitan areas. Data collected from 2,500 participants across twelve cities suggests a statistically significant positive relationship between park accessibility and reported well-being scores.": 1385,
      ". The Python programming language is widely used for web development, data analysis, artificial intelligence, and scientific computing. Its clear syntax and extensive library ecosystem make it an excellent choice for both beginners and experienced developers.": 1386,
      ". The quarterly earnings report exceeded analyst expectations, with revenue growing 23% year-over-year to reach $4.8 billion. Operating margins improved significantly due to cost optimization initiatives and increased operational efficiency across all business units.": 1387,
      "This study examines the correlation between urban green spaces and mental health outcomes in metropolitan areas. Data collected from 2,500 participants across twelve cities suggests a statistically significant positive relationship between park accessibility and reported well-being scores. Pursuant to Section 12(b) of the aforementioned agreement, all parties hereby acknowledge and consent to the terms and conditions outlined in Exhibit A. Any modifications to this contract must be submitted in writing and approved by authorized representatives from each participating entity.": 1388,
      "def calculate_fibonacci(n: int) -> int:\n    if n <= 1:\n        return n\n    return calculate_fibonacci(n-1) + calculate_fibonacci(n-2)\n\nresult = calculate_fibonacci(10)\nprint(f'Fibonacci(10) = {result}') This study examines the correlation between urban green spaces and mental health outcomes in metropolitan areas. Data collected from 2,500 participants across twelve cities suggests a statistically significant positive relationship between park accessibility and reported well-being scores.": 1389,
      "def calculate_fibonacci(n: int) -> int:\n    if n <= 1:\n        return n\n    return calculate_fibonacci(n-1) + calculate_fibonacci(n-2)\n\nresult = calculate_fibonacci(10)\nprint(f'Fibonacci(10) = {result}') Pursuant to Section 12(b) of the aforementioned agreement, all parties hereby acknowledge and consent to the terms and conditions outlined in Exhibit A. Any modifications to this contract must be submitted in writing and approved by authorized representatives from each participating entity.": 1390,
      "The Python programming language is widely used for web development, data analysis, artificial intelligence, and scientific computing. Its clear syntax and extensive library ecosystem make it an excellent choice for both beginners and experienced developers. The old bookstore stood at the corner of Main Street for over fifty years. Its weathered wooden shelves held countless stories, each book a portal to different worlds. The smell of aged paper and leather bindings greeted every visitor who pushed open the creaking door.": 1391,
      "The Python programming language is widely used for web development, data analysis, artificial intelligence, and scientific computing. Its clear syntax and extensive library ecosystem make it an excellent choice for both beginners and experienced developers. The Python programming language is widely used for web development, data analysis, artificial intelligence, and scientific computing. Its clear syntax and extensive library ecosystem make it an excellent choice for both beginners and experienced developers.": 1392,
      "This study examines the correlation between urban green spaces and mental health outcomes in metropolitan areas. Data collected from 2,500 participants across twelve cities suggests a statistically significant positive relationship between park accessibility and reported well-being scores. This study examines the correlation between urban green spaces and mental health outcomes in metropolitan areas. Data collected from 2,500 participants across twelve cities suggests a statistically significant positive relationship between park accessibility and reported well-being scores.": 1393,
      "This study examines the correlation between urban green spaces and mental health outcomes in metropolitan areas. Data collected from 2,500 participants across twelve cities suggests a statistically significant positive relationship between park accessibility and reported well-being scores. The clinical trial demonstrated promising results for the new treatment protocol. Patient outcomes improved across all measured metrics, with 78% showing significant symptom reduction within the first month. Side effects were minimal and manageable in the majority of cases.": 1394,
      "This study examines the correlation between urban green spaces and mental health outcomes in metropolitan areas. Data collected from 2,500 participants across twelve cities suggests a statistically significant positive relationship between park accessibility and reported well-being scores. Scientists at the research facility announced a breakthrough in renewable energy technology today. The new solar panel design achieves 47% efficiency, nearly doubling the performance of conventional photovoltaic cells currently available on the market.": 1395,
      "Just finished reading an amazing book about space exploration! The way the author explains complex astrophysics concepts makes it accessible to everyone. Highly recommend checking it out if you're interested in learning about the universe and our place in it. The old bookstore stood at the corner of Main Street for over fifty years. Its weathered wooden shelves held countless stories, each book a portal to different worlds. The smell of aged paper and leather bindings greeted every visitor who pushed open the creaking door.": 1396,
      "Scientists at the research facility announced a breakthrough in renewable energy technology today. The new solar panel design achieves 47% efficiency, nearly doubling the performance of conventional photovoltaic cells currently available on the market. def calculate_fibonacci(n: int) -> int:\n    if n <= 1:\n        return n\n    return calculate_fibonacci(n-1) + calculate_fibonacci(n-2)\n\nresult = calculate_fibonacci(10)\nprint(f'Fibonacci(10) = {result}')": 1397,
      "Scientists at the research facility announced a breakthrough in renewable energy technology today. The new solar panel design achieves 47% efficiency, nearly doubling the performance of conventional photovoltaic cells currently available on the market. Pursuant to Section 12(b) of the aforementioned agreement, all parties hereby acknowledge and consent to the terms and conditions outlined in Exhibit A. Any modifications to this contract must be submitted in writing and approved by authorized representatives from each participating entity.": 1398,
      "The clinical trial demonstrated promising results for the new treatment protocol. Patient outcomes improved across all measured metrics, with 78% showing significant symptom reduction within the first month. Side effects were minimal and manageable in the majority of cases. This study examines the correlation between urban green spaces and mental health outcomes in metropolitan areas. Data collected from 2,500 participants across twelve cities suggests a statistically significant positive relationship between park accessibility and reported well-being scores.": 1399,
      "The clinical trial demonstrated promising results for the new treatment protocol. Patient outcomes improved across all measured metrics, with 78% showing significant symptom reduction within the first month. Side effects were minimal and manageable in the majority of cases. The clinical trial demonstrated promising results for the new treatment protocol. Patient outcomes improved across all measured metrics, with 78% showing significant symptom reduction within the first month. Side effects were minimal and manageable in the majority of cases.": 1400,
      "The clinical trial demonstrated promising results for the new treatment protocol. Patient outcomes improved across all measured metrics, with 78% showing significant symptom reduction within the first month. Side effects were minimal and manageable in the majority of cases. def calculate_fibonacci(n: int) -> int:\n    if n <= 1:\n        return n\n    return calculate_fibonacci(n-1) + calculate_fibonacci(n-2)\n\nresult = calculate_fibonacci(10)\nprint(f'Fibonacci(10) = {result}')": 1401,
      "The clinical trial demonstrated promising results for the new treatment protocol. Patient outcomes improved across all measured metrics, with 78% showing significant symptom reduction within the first month. Side effects were minimal and manageable in the majority of cases. Just finished reading an amazing book about space exploration! The way the author explains complex astrophysics concepts makes it accessible to everyone. Highly recommend checking it out if you're interested in learning about the universe and our place in it.": 1402,
      "Pursuant to Section 12(b) of the aforementioned agreement, all parties hereby acknowledge and consent to the terms and conditions outlined in Exhibit A. Any modifications to this contract must be submitted in writing and approved by authorized representatives from each participating entity. This study examines the correlation between urban green spaces and mental health outcomes in metropolitan areas. Data collected from 2,500 participants across twelve cities suggests a statistically significant positive relationship between park accessibility and reported well-being scores.": 1403,
      "Pursuant to Section 12(b) of the aforementioned agreement, all parties hereby acknowledge and consent to the terms and conditions outlined in Exhibit A. Any modifications to this contract must be submitted in writing and approved by authorized representatives from each participating entity. Understanding photosynthesis is fundamental to biology education. Plants convert light energy into chemical energy through a complex series of reactions. Chlorophyll molecules in the chloroplasts absorb sunlight, initiating the process that ultimately produces glucose and oxygen.": 1404,
      "Pursuant to Section 12(b) of the aforementioned agreement, all parties hereby acknowledge and consent to the terms and conditions outlined in Exhibit A. Any modifications to this contract must be submitted in writing and approved by authorized representatives from each participating entity. Just finished reading an amazing book about space exploration! The way the author explains complex astrophysics concepts makes it accessible to everyone. Highly recommend checking it out if you're interested in learning about the universe and our place in it.": 1405,
      "The quarterly earnings report exceeded analyst expectations, with revenue growing 23% year-over-year to reach $4.8 billion. Operating margins improved significantly due to cost optimization initiatives and increased operational efficiency across all business units. Understanding photosynthesis is fundamental to biology education. Plants convert light energy into chemical energy through a complex series of reactions. Chlorophyll molecules in the chloroplasts absorb sunlight, initiating the process that ultimately produces glucose and oxygen.": 1406,
      "The quarterly earnings report exceeded analyst expectations, with revenue growing 23% year-over-year to reach $4.8 billion. Operating margins improved significantly due to cost optimization initiatives and increased operational efficiency across all business units. def calculate_fibonacci(n: int) -> int:\n    if n <= 1:\n        return n\n    return calculate_fibonacci(n-1) + calculate_fibonacci(n-2)\n\nresult = calculate_fibonacci(10)\nprint(f'Fibonacci(10) = {result}')": 1407,
      "The quarterly earnings report exceeded analyst expectations, with revenue growing 23% year-over-year to reach $4.8 billion. Operating margins improved significantly due to cost optimization initiatives and increased operational efficiency across all business units. Pursuant to Section 12(b) of the aforementioned agreement, all parties hereby acknowledge and consent to the terms and conditions outlined in Exhibit A. Any modifications to this contract must be submitted in writing and approved by authorized representatives from each participating entity.": 1408,
      "The old bookstore stood at the corner of Main Street for over fifty years. Its weathered wooden shelves held countless stories, each book a portal to different worlds. The smell of aged paper and leather bindings greeted every visitor who pushed open the creaking door. Understanding photosynthesis is fundamental to biology education. Plants convert light energy into chemical energy through a complex series of reactions. Chlorophyll molecules in the chloroplasts absorb sunlight, initiating the process that ultimately produces glucose and oxygen.": 1409,
      "The old bookstore stood at the corner of Main Street for over fifty years. Its weathered wooden shelves held countless stories, each book a portal to different worlds. The smell of aged paper and leather bindings greeted every visitor who pushed open the creaking door. The clinical trial demonstrated promising results for the new treatment protocol. Patient outcomes improved across all measured metrics, with 78% showing significant symptom reduction within the first month. Side effects were minimal and manageable in the majority of cases.": 1410,
      "The Python programming language is widely used for web development, data analysis, artificial intelligence, and scientific computing. Its clear syntax and extensive library ecosystem make it an excellent choice for both beginners and experienced developers. The quarterly earnings report exceeded analyst expectations, with revenue growing 23% year-over-year to reach $4.8 billion. Operating margins improved significantly due to cost optimization initiatives and increased operational efficiency across all business units.": 1411,
      "The Python programming language is widely used for web development, data analysis, artificial intelligence, and scientific computing. Its clear syntax and extensive library ecosystem make it an excellent choice for both beginners and experienced developers. This study examines the correlation between urban green spaces and mental health outcomes in metropolitan areas. Data collected from 2,500 participants across twelve cities suggests a statistically significant positive relationship between park accessibility and reported well-being scores.": 1412,
      "The Python programming language is widely used for web development, data analysis, artificial intelligence, and scientific computing. Its clear syntax and extensive library ecosystem make it an excellent choice for both beginners and experienced developers. Scientists at the research facility announced a breakthrough in renewable energy technology today. The new solar panel design achieves 47% efficiency, nearly doubling the performance of conventional photovoltaic cells currently available on the market.": 1413,
      "The quarterly earnings report exceeded analyst expectations, with revenue growing 23% year-over-year to reach $4.8 billion. Operating margins improved significantly due to cost optimization initiatives and increased operational efficiency across all business units. The old bookstore stood at the corner of Main Street for over fifty years. Its weathered wooden shelves held countless stories, each book a portal to different worlds. The smell of aged paper and leather bindings greeted every visitor who pushed open the creaking door.": 1414,
      "This study examines the correlation between urban green spaces and mental health outcomes in metropolitan areas. Data collected from 2,500 participants across twelve cities suggests a statistically significant positive relationship between park accessibility and reported well-being scores. def calculate_fibonacci(n: int) -> int:\n    if n <= 1:\n        return n\n    return calculate_fibonacci(n-1) + calculate_fibonacci(n-2)\n\nresult = calculate_fibonacci(10)\nprint(f'Fibonacci(10) = {result}')": 1415,
      "Just finished reading an amazing book about space exploration! The way the author explains complex astrophysics concepts makes it accessible to everyone. Highly recommend checking it out if you're interested in learning about the universe and our place in it. Understanding photosynthesis is fundamental to biology education. Plants convert light energy into chemical energy through a complex series of reactions. Chlorophyll molecules in the chloroplasts absorb sunlight, initiating the process that ultimately produces glucose and oxygen.": 1416,
      "Just finished reading an amazing book about space exploration! The way the author explains complex astrophysics concepts makes it accessible to everyone. Highly recommend checking it out if you're interested in learning about the universe and our place in it. Scientists at the research facility announced a breakthrough in renewable energy technology today. The new solar panel design achieves 47% efficiency, nearly doubling the performance of conventional photovoltaic cells currently available on the market.": 1417,
      "Just finished reading an amazing book about space exploration! The way the author explains complex astrophysics concepts makes it accessible to everyone. Highly recommend checking it out if you're interested in learning about the universe and our place in it. Just finished reading an amazing book about space exploration! The way the author explains complex astrophysics concepts makes it accessible to everyone. Highly recommend checking it out if you're interested in learning about the universe and our place in it.": 1418,
      "Scientists at the research facility announced a breakthrough in renewable energy technology today. The new solar panel design achieves 47% efficiency, nearly doubling the performance of conventional photovoltaic cells currently available on the market. The clinical trial demonstrated promising results for the new treatment protocol. Patient outcomes improved across all measured metrics, with 78% showing significant symptom reduction within the first month. Side effects were minimal and manageable in the majority of cases.": 1419,
      "Scientists at the research facility announced a breakthrough in renewable energy technology today. The new solar panel design achieves 47% efficiency, nearly doubling the performance of conventional photovoltaic cells currently available on the market. The old bookstore stood at the corner of Main Street for over fifty years. Its weathered wooden shelves held countless stories, each book a portal to different worlds. The smell of aged paper and leather bindings greeted every visitor who pushed open the creaking door.": 1420,
      "Scientists at the research facility announced a breakthrough in renewable energy technology today. The new solar panel design achieves 47% efficiency, nearly doubling the performance of conventional photovoltaic cells currently available on the market. The Python programming language is widely used for web development, data analysis, artificial intelligence, and scientific computing. Its clear syntax and extensive library ecosystem make it an excellent choice for both beginners and experienced developers.": 1421,
      "Understanding photosynthesis is fundamental to biology education. Plants convert light energy into chemical energy through a complex series of reactions. Chlorophyll molecules in the chloroplasts absorb sunlight, initiating the process that ultimately produces glucose and oxygen. The old bookstore stood at the corner of Main Street for over fifty years. Its weathered wooden shelves held countless stories, each book a portal to different worlds. The smell of aged paper and leather bindings greeted every visitor who pushed open the creaking door.": 1422,
      "The clinical trial demonstrated promising results for the new treatment protocol. Patient outcomes improved across all measured metrics, with 78% showing significant symptom reduction within the first month. Side effects were minimal and manageable in the majority of cases. Scientists at the research facility announced a breakthrough in renewable energy technology today. The new solar panel design achieves 47% efficiency, nearly doubling the performance of conventional photovoltaic cells currently available on the market.": 1423,
      "The clinical trial demonstrated promising results for the new treatment protocol. Patient outcomes improved across all measured metrics, with 78% showing significant symptom reduction within the first month. Side effects were minimal and manageable in the majority of cases. The quarterly earnings report exceeded analyst expectations, with revenue growing 23% year-over-year to reach $4.8 billion. Operating margins improved significantly due to cost optimization initiatives and increased operational efficiency across all business units.": 1424,
      "Pursuant to Section 12(b) of the aforementioned agreement, all parties hereby acknowledge and consent to the terms and conditions outlined in Exhibit A. Any modifications to this contract must be submitted in writing and approved by authorized representatives from each participating entity. Scientists at the research facility announced a breakthrough in renewable energy technology today. The new solar panel design achieves 47% efficiency, nearly doubling the performance of conventional photovoltaic cells currently available on the market.": 1425,
      "The quarterly earnings report exceeded analyst expectations, with revenue growing 23% year-over-year to reach $4.8 billion. Operating margins improved significantly due to cost optimization initiatives and increased operational efficiency across all business units. Just finished reading an amazing book about space exploration! The way the author explains complex astrophysics concepts makes it accessible to everyone. Highly recommend checking it out if you're interested in learning about the universe and our place in it.": 1426,
      "The quarterly earnings report exceeded analyst expectations, with revenue growing 23% year-over-year to reach $4.8 billion. Operating margins improved significantly due to cost optimization initiatives and increased operational efficiency across all business units. Scientists at the research facility announced a breakthrough in renewable energy technology today. The new solar panel design achieves 47% efficiency, nearly doubling the performance of conventional photovoltaic cells currently available on the market.": 1427,
      "def calculate_fibonacci(n: int) -> int:\n    if n <= 1:\n        return n\n    return calculate_fibonacci(n-1) + calculate_fibonacci(n-2)\n\nresult = calculate_fibonacci(10)\nprint(f'Fibonacci(10) = {result}') The clinical trial demonstrated promising results for the new treatment protocol. Patient outcomes improved across all measured metrics, with 78% showing significant symptom reduction within the first month. Side effects were minimal and manageable in the majority of cases.": 1428,
      "def calculate_fibonacci(n: int) -> int:\n    if n <= 1:\n        return n\n    return calculate_fibonacci(n-1) + calculate_fibonacci(n-2)\n\nresult = calculate_fibonacci(10)\nprint(f'Fibonacci(10) = {result}') The Python programming language is widely used for web development, data analysis, artificial intelligence, and scientific computing. Its clear syntax and extensive library ecosystem make it an excellent choice for both beginners and experienced developers.": 1429,
      "The old bookstore stood at the corner of Main Street for over fifty years. Its weathered wooden shelves held countless stories, each book a portal to different worlds. The smell of aged paper and leather bindings greeted every visitor who pushed open the creaking door. This study examines the correlation between urban green spaces and mental health outcomes in metropolitan areas. Data collected from 2,500 participants across twelve cities suggests a statistically significant positive relationship between park accessibility and reported well-being scores.": 1430,
      "The old bookstore stood at the corner of Main Street for over fifty years. Its weathered wooden shelves held countless stories, each book a portal to different worlds. The smell of aged paper and leather bindings greeted every visitor who pushed open the creaking door. Scientists at the research facility announced a breakthrough in renewable energy technology today. The new solar panel design achieves 47% efficiency, nearly doubling the performance of conventional photovoltaic cells currently available on the market.": 1431,
      "The Python programming language is widely used for web development, data analysis, artificial intelligence, and scientific computing. Its clear syntax and extensive library ecosystem make it an excellent choice for both beginners and experienced developers. The clinical trial demonstrated promising results for the new treatment protocol. Patient outcomes improved across all measured metrics, with 78% showing significant symptom reduction within the first month. Side effects were minimal and manageable in the majority of cases.": 1432,
      "The Python programming language is widely used for web development, data analysis, artificial intelligence, and scientific computing. Its clear syntax and extensive library ecosystem make it an excellent choice for both beginners and experienced developers. Understanding photosynthesis is fundamental to biology education. Plants convert light energy into chemical energy through a complex series of reactions. Chlorophyll molecules in the chloroplasts absorb sunlight, initiating the process that ultimately produces glucose and oxygen.": 1433,
      "The quarterly earnings report exceeded analyst expectations, with revenue growing 23% year-over-year to reach $4.8 billion. Operating margins improved significantly due to cost optimization initiatives and increased operational efficiency across all business units. The clinical trial demonstrated promising results for the new treatment protocol. Patient outcomes improved across all measured metrics, with 78% showing significant symptom reduction within the first month. Side effects were minimal and manageable in the majority of cases.": 1434,
      "The quarterly earnings report exceeded analyst expectations, with revenue growing 23% year-over-year to reach $4.8 billion. Operating margins improved significantly due to cost optimization initiatives and increased operational efficiency across all business units. The quarterly earnings report exceeded analyst expectations, with revenue growing 23% year-over-year to reach $4.8 billion. Operating margins improved significantly due to cost optimization initiatives and increased operational efficiency across all business units.": 1435,
      "Pursuant to Section 12(b) of the aforementioned agreement, all parties hereby acknowledge and consent to the terms and conditions outlined in Exhibit A. Any modifications to this contract must be submitted in writing and approved by authorized representatives from each participating entity. The old bookstore stood at the corner of Main Street for over fifty years. Its weathered wooden shelves held countless stories, each book a portal to different worlds. The smell of aged paper and leather bindings greeted every visitor who pushed open the creaking door.": 1436,
      "Pursuant to Section 12(b) of the aforementioned agreement, all parties hereby acknowledge and consent to the terms and conditions outlined in Exhibit A. Any modifications to this contract must be submitted in writing and approved by authorized representatives from each participating entity. The clinical trial demonstrated promising results for the new treatment protocol. Patient outcomes improved across all measured metrics, with 78% showing significant symptom reduction within the first month. Side effects were minimal and manageable in the majority of cases.": 1437,
      "Pursuant to Section 12(b) of the aforementioned agreement, all parties hereby acknowledge and consent to the terms and conditions outlined in Exhibit A. Any modifications to this contract must be submitted in writing and approved by authorized representatives from each participating entity. The Python programming language is widely used for web development, data analysis, artificial intelligence, and scientific computing. Its clear syntax and extensive library ecosystem make it an excellent choice for both beginners and experienced developers.": 1438,
      "This study examines the correlation between urban green spaces and mental health outcomes in metropolitan areas. Data collected from 2,500 participants across twelve cities suggests a statistically significant positive relationship between park accessibility and reported well-being scores. Understanding photosynthesis is fundamental to biology education. Plants convert light energy into chemical energy through a complex series of reactions. Chlorophyll molecules in the chloroplasts absorb sunlight, initiating the process that ultimately produces glucose and oxygen.": 1439,
      "This study examines the correlation between urban green spaces and mental health outcomes in metropolitan areas. Data collected from 2,500 participants across twelve cities suggests a statistically significant positive relationship between park accessibility and reported well-being scores. Just finished reading an amazing book about space exploration! The way the author explains complex astrophysics concepts makes it accessible to everyone. Highly recommend checking it out if you're interested in learning about the universe and our place in it.": 1440,
      "This study examines the correlation between urban green spaces and mental health outcomes in metropolitan areas. Data collected from 2,500 participants across twelve cities suggests a statistically significant positive relationship between park accessibility and reported well-being scores. The old bookstore stood at the corner of Main Street for over fifty years. Its weathered wooden shelves held countless stories, each book a portal to different worlds. The smell of aged paper and leather bindings greeted every visitor who pushed open the creaking door.": 1441,
      "This study examines the correlation between urban green spaces and mental health outcomes in metropolitan areas. Data collected from 2,500 participants across twelve cities suggests a statistically significant positive relationship between park accessibility and reported well-being scores. The Python programming language is widely used for web development, data analysis, artificial intelligence, and scientific computing. Its clear syntax and extensive library ecosystem make it an excellent choice for both beginners and experienced developers.": 1442,
      "This study examines the correlation between urban green spaces and mental health outcomes in metropolitan areas. Data collected from 2,500 participants across twelve cities suggests a statistically significant positive relationship between park accessibility and reported well-being scores. The quarterly earnings report exceeded analyst expectations, with revenue growing 23% year-over-year to reach $4.8 billion. Operating margins improved significantly due to cost optimization initiatives and increased operational efficiency across all business units.": 1443,
      "Just finished reading an amazing book about space exploration! The way the author explains complex astrophysics concepts makes it accessible to everyone. Highly recommend checking it out if you're interested in learning about the universe and our place in it. This study examines the correlation between urban green spaces and mental health outcomes in metropolitan areas. Data collected from 2,500 participants across twelve cities suggests a statistically significant positive relationship between park accessibility and reported well-being scores.": 1444,
      "Just finished reading an amazing book about space exploration! The way the author explains complex astrophysics concepts makes it accessible to everyone. Highly recommend checking it out if you're interested in learning about the universe and our place in it. The clinical trial demonstrated promising results for the new treatment protocol. Patient outcomes improved across all measured metrics, with 78% showing significant symptom reduction within the first month. Side effects were minimal and manageable in the majority of cases.": 1445,
      "Just finished reading an amazing book about space exploration! The way the author explains complex astrophysics concepts makes it accessible to everyone. Highly recommend checking it out if you're interested in learning about the universe and our place in it. def calculate_fibonacci(n: int) -> int:\n    if n <= 1:\n        return n\n    return calculate_fibonacci(n-1) + calculate_fibonacci(n-2)\n\nresult = calculate_fibonacci(10)\nprint(f'Fibonacci(10) = {result}')": 1446,
      "Just finished reading an amazing book about space exploration! The way the author explains complex astrophysics concepts makes it accessible to everyone. Highly recommend checking it out if you're interested in learning about the universe and our place in it. Pursuant to Section 12(b) of the aforementioned agreement, all parties hereby acknowledge and consent to the terms and conditions outlined in Exhibit A. Any modifications to this contract must be submitted in writing and approved by authorized representatives from each participating entity.": 1447,
      "Scientists at the research facility announced a breakthrough in renewable energy technology today. The new solar panel design achieves 47% efficiency, nearly doubling the performance of conventional photovoltaic cells currently available on the market. This study examines the correlation between urban green spaces and mental health outcomes in metropolitan areas. Data collected from 2,500 participants across twelve cities suggests a statistically significant positive relationship between park accessibility and reported well-being scores.": 1448,
      "Scientists at the research facility announced a breakthrough in renewable energy technology today. The new solar panel design achieves 47% efficiency, nearly doubling the performance of conventional photovoltaic cells currently available on the market. Understanding photosynthesis is fundamental to biology education. Plants convert light energy into chemical energy through a complex series of reactions. Chlorophyll molecules in the chloroplasts absorb sunlight, initiating the process that ultimately produces glucose and oxygen.": 1449,
      "Understanding photosynthesis is fundamental to biology education. Plants convert light energy into chemical energy through a complex series of reactions. Chlorophyll molecules in the chloroplasts absorb sunlight, initiating the process that ultimately produces glucose and oxygen. This study examines the correlation between urban green spaces and mental health outcomes in metropolitan areas. Data collected from 2,500 participants across twelve cities suggests a statistically significant positive relationship between park accessibility and reported well-being scores.": 1450,
      "Understanding photosynthesis is fundamental to biology education. Plants convert light energy into chemical energy through a complex series of reactions. Chlorophyll molecules in the chloroplasts absorb sunlight, initiating the process that ultimately produces glucose and oxygen. Understanding photosynthesis is fundamental to biology education. Plants convert light energy into chemical energy through a complex series of reactions. Chlorophyll molecules in the chloroplasts absorb sunlight, initiating the process that ultimately produces glucose and oxygen.": 1451,
      "Understanding photosynthesis is fundamental to biology education. Plants convert light energy into chemical energy through a complex series of reactions. Chlorophyll molecules in the chloroplasts absorb sunlight, initiating the process that ultimately produces glucose and oxygen. Scientists at the research facility announced a breakthrough in renewable energy technology today. The new solar panel design achieves 47% efficiency, nearly doubling the performance of conventional photovoltaic cells currently available on the market.": 1452,
      "Understanding photosynthesis is fundamental to biology education. Plants convert light energy into chemical energy through a complex series of reactions. Chlorophyll molecules in the chloroplasts absorb sunlight, initiating the process that ultimately produces glucose and oxygen. def calculate_fibonacci(n: int) -> int:\n    if n <= 1:\n        return n\n    return calculate_fibonacci(n-1) + calculate_fibonacci(n-2)\n\nresult = calculate_fibonacci(10)\nprint(f'Fibonacci(10) = {result}')": 1453,
      "Understanding photosynthesis is fundamental to biology education. Plants convert light energy into chemical energy through a complex series of reactions. Chlorophyll molecules in the chloroplasts absorb sunlight, initiating the process that ultimately produces glucose and oxygen. Just finished reading an amazing book about space exploration! The way the author explains complex astrophysics concepts makes it accessible to everyone. Highly recommend checking it out if you're interested in learning about the universe and our place in it.": 1454,
      "Understanding photosynthesis is fundamental to biology education. Plants convert light energy into chemical energy through a complex series of reactions. Chlorophyll molecules in the chloroplasts absorb sunlight, initiating the process that ultimately produces glucose and oxygen. The quarterly earnings report exceeded analyst expectations, with revenue growing 23% year-over-year to reach $4.8 billion. Operating margins improved significantly due to cost optimization initiatives and increased operational efficiency across all business units.": 1455,
      "The clinical trial demonstrated promising results for the new treatment protocol. Patient outcomes improved across all measured metrics, with 78% showing significant symptom reduction within the first month. Side effects were minimal and manageable in the majority of cases. Understanding photosynthesis is fundamental to biology education. Plants convert light energy into chemical energy through a complex series of reactions. Chlorophyll molecules in the chloroplasts absorb sunlight, initiating the process that ultimately produces glucose and oxygen.": 1456,
      "The clinical trial demonstrated promising results for the new treatment protocol. Patient outcomes improved across all measured metrics, with 78% showing significant symptom reduction within the first month. Side effects were minimal and manageable in the majority of cases. The old bookstore stood at the corner of Main Street for over fifty years. Its weathered wooden shelves held countless stories, each book a portal to different worlds. The smell of aged paper and leather bindings greeted every visitor who pushed open the creaking door.": 1457,
      "The clinical trial demonstrated promising results for the new treatment protocol. Patient outcomes improved across all measured metrics, with 78% showing significant symptom reduction within the first month. Side effects were minimal and manageable in the majority of cases. Pursuant to Section 12(b) of the aforementioned agreement, all parties hereby acknowledge and consent to the terms and conditions outlined in Exhibit A. Any modifications to this contract must be submitted in writing and approved by authorized representatives from each participating entity.": 1458,
      "The clinical trial demonstrated promising results for the new treatment protocol. Patient outcomes improved across all measured metrics, with 78% showing significant symptom reduction within the first month. Side effects were minimal and manageable in the majority of cases. The Python programming language is widely used for web development, data analysis, artificial intelligence, and scientific computing. Its clear syntax and extensive library ecosystem make it an excellent choice for both beginners and experienced developers.": 1459,
      "def calculate_fibonacci(n: int) -> int:\n    if n <= 1:\n        return n\n    return calculate_fibonacci(n-1) + calculate_fibonacci(n-2)\n\nresult = calculate_fibonacci(10)\nprint(f'Fibonacci(10) = {result}') Scientists at the research facility announced a breakthrough in renewable energy technology today. The new solar panel design achieves 47% efficiency, nearly doubling the performance of conventional photovoltaic cells currently available on the market.": 1460,
      "def calculate_fibonacci(n: int) -> int:\n    if n <= 1:\n        return n\n    return calculate_fibonacci(n-1) + calculate_fibonacci(n-2)\n\nresult = calculate_fibonacci(10)\nprint(f'Fibonacci(10) = {result}') The quarterly earnings report exceeded analyst expectations, with revenue growing 23% year-over-year to reach $4.8 billion. Operating margins improved significantly due to cost optimization initiatives and increased operational efficiency across all business units.": 1461,
      "def calculate_fibonacci(n: int) -> int:\n    if n <= 1:\n        return n\n    return calculate_fibonacci(n-1) + calculate_fibonacci(n-2)\n\nresult = calculate_fibonacci(10)\nprint(f'Fibonacci(10) = {result}') The old bookstore stood at the corner of Main Street for over fifty years. Its weathered wooden shelves held countless stories, each book a portal to different worlds. The smell of aged paper and leather bindings greeted every visitor who pushed open the creaking door.": 1462,
      "The old bookstore stood at the corner of Main Street for over fifty years. Its weathered wooden shelves held countless stories, each book a portal to different worlds. The smell of aged paper and leather bindings greeted every visitor who pushed open the creaking door. def calculate_fibonacci(n: int) -> int:\n    if n <= 1:\n        return n\n    return calculate_fibonacci(n-1) + calculate_fibonacci(n-2)\n\nresult = calculate_fibonacci(10)\nprint(f'Fibonacci(10) = {result}')": 1463,
      "The old bookstore stood at the corner of Main Street for over fifty years. Its weathered wooden shelves held countless stories, each book a portal to different worlds. The smell of aged paper and leather bindings greeted every visitor who pushed open the creaking door. The old bookstore stood at the corner of Main Street for over fifty years. Its weathered wooden shelves held countless stories, each book a portal to different worlds. The smell of aged paper and leather bindings greeted every visitor who pushed open the creaking door.": 1464,
      "The old bookstore stood at the corner of Main Street for over fifty years. Its weathered wooden shelves held countless stories, each book a portal to different worlds. The smell of aged paper and leather bindings greeted every visitor who pushed open the creaking door. Pursuant to Section 12(b) of the aforementioned agreement, all parties hereby acknowledge and consent to the terms and conditions outlined in Exhibit A. Any modifications to this contract must be submitted in writing and approved by authorized representatives from each participating entity.": 1465,
      "The old bookstore stood at the corner of Main Street for over fifty years. Its weathered wooden shelves held countless stories, each book a portal to different worlds. The smell of aged paper and leather bindings greeted every visitor who pushed open the creaking door. The Python programming language is widely used for web development, data analysis, artificial intelligence, and scientific computing. Its clear syntax and extensive library ecosystem make it an excellent choice for both beginners and experienced developers.": 1466,
      "The Python programming language is widely used for web development, data analysis, artificial intelligence, and scientific computing. Its clear syntax and extensive library ecosystem make it an excellent choice for both beginners and experienced developers. Just finished reading an amazing book about space exploration! The way the author explains complex astrophysics concepts makes it accessible to everyone. Highly recommend checking it out if you're interested in learning about the universe and our place in it.": 1467,
      "The Python programming language is widely used for web development, data analysis, artificial intelligence, and scientific computing. Its clear syntax and extensive library ecosystem make it an excellent choice for both beginners and experienced developers. def calculate_fibonacci(n: int) -> int:\n    if n <= 1:\n        return n\n    return calculate_fibonacci(n-1) + calculate_fibonacci(n-2)\n\nresult = calculate_fibonacci(10)\nprint(f'Fibonacci(10) = {result}')": 1468,
      "The Python programming language is widely used for web development, data analysis, artificial intelligence, and scientific computing. Its clear syntax and extensive library ecosystem make it an excellent choice for both beginners and experienced developers. Pursuant to Section 12(b) of the aforementioned agreement, all parties hereby acknowledge and consent to the terms and conditions outlined in Exhibit A. Any modifications to this contract must be submitted in writing and approved by authorized representatives from each participating entity.": 1469,
      "The quarterly earnings report exceeded analyst expectations, with revenue growing 23% year-over-year to reach $4.8 billion. Operating margins improved significantly due to cost optimization initiatives and increased operational efficiency across all business units. The Python programming language is widely used for web development, data analysis, artificial intelligence, and scientific computing. Its clear syntax and extensive library ecosystem make it an excellent choice for both beginners and experienced developers.": 1470,
      "Pursuant to Section 12(b) of the aforementioned agreement, all parties hereby acknowledge and consent to the terms and conditions outlined in Exhibit A. Any modifications to this contract must be submitted in writing and approved by authorized representatives from each participating entity. The quarterly earnings report exceeded analyst expectations, with revenue growing 23% year-over-year to reach $4.8 billion. Operating margins improved significantly due to cost optimization initiatives and increased operational efficiency across all business units.": 1471
    },
    "merges": [
      [
        " ",
        "a"
      ],
      [
        "i",
        "n"
      ],
      [
        "e",
        " "
      ],
      [
        "r",
        "e"
      ],
      [
        "s",
        " "
      ],
      [
        "d",
        " "
      ],
      [
        "t",
        "i"
      ],
      [
        "t",
        "h"
      ],
      [
        "o",
        "n"
      ],
      [
        "e",
        "n"
      ],
      [
        "t",
        " "
      ],
      [
        "e",
        "r"
      ],
      [
        "o",
        "r"
      ],
      [
        "y",
        " "
      ],
      [
        "in",
        "g"
      ],
      [
        "a",
        "l"
      ],
      [
        "r",
        "o"
      ],
      [
        " a",
        "n"
      ],
      [
        "a",
        "r"
      ],
      [
        "e",
        "d "
      ],
      [
        "t",
        "o"
      ],
      [
        "i",
        "c"
      ],
      [
        ".",
        " "
      ],
      [
        "a",
        "n"
      ],
      [
        "ti",
        "on"
      ],
      [
        "a",
        "c"
      ],
      [
        "c",
        "o"
      ],
      [
        "th",
        "e "
      ],
      [
        "e",
        "l"
      ],
      [
        "ing",
        " "
      ],
      [
        "e",
        "s"
      ],
      [
        " ",
        " "
      ],
      [
        "e",
        "s "
      ],
      [
        " an",
        "d "
      ],
      [
        "a",
        "t"
      ],
      [
        "s",
        "t"
      ],
      [
        "i",
        "t"
      ],
      [
        " ",
        "b"
      ],
      [
        " ",
        "p"
      ],
      [
        "c",
        "i"
      ],
      [
        "o",
        "u"
      ],
      [
        "in",
        " "
      ],
      [
        "e",
        "x"
      ],
      [
        "i",
        "b"
      ],
      [
        "u",
        "l"
      ],
      [
        "T",
        "h"
      ],
      [
        "a",
        "tion"
      ],
      [
        "f",
        "ic"
      ],
      [
        "al",
        " "
      ],
      [
        "i",
        "g"
      ],
      [
        "e",
        "ar"
      ],
      [
        " ",
        "c"
      ],
      [
        " a",
        "c"
      ],
      [
        "o",
        "l"
      ],
      [
        "e",
        "c"
      ],
      [
        " ",
        "s"
      ],
      [
        "p",
        "ro"
      ],
      [
        "Th",
        "e "
      ],
      [
        "m",
        "en"
      ],
      [
        "e",
        "d"
      ],
      [
        "e",
        "t"
      ],
      [
        "o",
        "p"
      ],
      [
        "to",
        " "
      ],
      [
        "re",
        "s"
      ],
      [
        "l",
        "l"
      ],
      [
        "co",
        "m"
      ],
      [
        ",",
        " "
      ],
      [
        "t",
        "s "
      ],
      [
        "o",
        "f"
      ],
      [
        "v",
        "er"
      ],
      [
        "s",
        " a"
      ],
      [
        "l",
        "y "
      ],
      [
        "re",
        "a"
      ],
      [
        "el",
        "l"
      ],
      [
        "f",
        "or"
      ],
      [
        "u",
        "r"
      ],
      [
        "h",
        "o"
      ],
      [
        "s",
        "t "
      ],
      [
        "i",
        "s "
      ],
      [
        "g",
        "y "
      ],
      [
        "in",
        "t"
      ],
      [
        "on",
        "ac"
      ],
      [
        "  ",
        "  "
      ],
      [
        "ci",
        "("
      ],
      [
        "ib",
        "onac"
      ],
      [
        "ibonac",
        "ci("
      ],
      [
        "u",
        "n"
      ],
      [
        "s",
        ". "
      ],
      [
        "c",
        "on"
      ],
      [
        "ig",
        "n"
      ],
      [
        "w",
        "e"
      ],
      [
        "b",
        "l"
      ],
      [
        "a",
        "ti"
      ],
      [
        "i",
        "fic"
      ],
      [
        "w",
        "i"
      ],
      [
        " p",
        "ar"
      ],
      [
        "m",
        " "
      ],
      [
        "e",
        "f"
      ],
      [
        "s",
        "u"
      ],
      [
        "the ",
        "c"
      ],
      [
        "en",
        "c"
      ],
      [
        "p",
        "er"
      ],
      [
        "i",
        "s"
      ],
      [
        "m",
        "a"
      ],
      [
        "men",
        "t"
      ],
      [
        ")",
        " "
      ],
      [
        "_",
        "f"
      ],
      [
        "c",
        "ul"
      ],
      [
        "e",
        "_f"
      ],
      [
        "i",
        "f"
      ],
      [
        "o",
        "o"
      ],
      [
        "al",
        "cul"
      ],
      [
        "at",
        "e_f"
      ],
      [
        " c",
        "alcul"
      ],
      [
        "ate_f",
        "ibonacci("
      ],
      [
        " calcul",
        "ate_fibonacci("
      ],
      [
        "p",
        "l"
      ],
      [
        "e",
        "re"
      ],
      [
        "v",
        "e "
      ],
      [
        "s",
        "ign"
      ],
      [
        "th",
        " "
      ],
      [
        "ro",
        "s"
      ],
      [
        " ac",
        "ros"
      ],
      [
        "ific",
        "an"
      ],
      [
        "sign",
        "ifican"
      ],
      [
        "i",
        "l"
      ],
      [
        "t",
        "ed "
      ],
      [
        "i",
        "m"
      ],
      [
        "a",
        "bl"
      ],
      [
        "e",
        "w"
      ],
      [
        "n",
        "ew"
      ],
      [
        "abl",
        "e "
      ],
      [
        "ou",
        "t"
      ],
      [
        "i",
        "ti"
      ],
      [
        "h",
        " "
      ],
      [
        "re",
        "p"
      ],
      [
        "c",
        "es"
      ],
      [
        "d",
        "e"
      ],
      [
        "g",
        "re"
      ],
      [
        "i",
        "enc"
      ],
      [
        "d",
        "u"
      ],
      [
        "for",
        " "
      ],
      [
        "res",
        "ul"
      ],
      [
        "y",
        "ear"
      ],
      [
        "pro",
        "v"
      ],
      [
        "s",
        "y"
      ],
      [
        " par",
        "ti"
      ],
      [
        "u",
        "s"
      ],
      [
        "en",
        "t "
      ],
      [
        "en",
        "ti"
      ],
      [
        "v",
        "es "
      ],
      [
        "\n",
        "    "
      ],
      [
        "en",
        "er"
      ],
      [
        "ou",
        "t "
      ],
      [
        "oo",
        "k"
      ],
      [
        " calculate_fibonacci(",
        "n"
      ],
      [
        "ener",
        "gy "
      ],
      [
        "at",
        "ing "
      ],
      [
        "ig",
        "h"
      ],
      [
        "e",
        " and "
      ],
      [
        "of",
        " "
      ],
      [
        "l",
        "ation"
      ],
      [
        "re",
        "lation"
      ],
      [
        " b",
        "et"
      ],
      [
        "we",
        "en"
      ],
      [
        " bet",
        "ween"
      ],
      [
        "m",
        "in"
      ],
      [
        "m",
        "et"
      ],
      [
        "com",
        "es "
      ],
      [
        "significan",
        "t "
      ],
      [
        "out",
        "comes "
      ],
      [
        "h",
        "i"
      ],
      [
        "it",
        "y"
      ],
      [
        "il",
        "ity"
      ],
      [
        "es",
        " and "
      ],
      [
        "rep",
        "or"
      ],
      [
        "m",
        "on"
      ],
      [
        "in ",
        "the "
      ],
      [
        "at",
        "a"
      ],
      [
        "p",
        "ac"
      ],
      [
        "s",
        "ib"
      ],
      [
        "en",
        " s"
      ],
      [
        "ro",
        "p"
      ],
      [
        " ac",
        "ces"
      ],
      [
        "the c",
        "or"
      ],
      [
        " acces",
        "sib"
      ],
      [
        "m",
        "an"
      ],
      [
        "of",
        " c"
      ],
      [
        ". ",
        "P"
      ],
      [
        "h",
        "e"
      ],
      [
        "s",
        ", "
      ],
      [
        "w",
        "ing "
      ],
      [
        "s a",
        "ll"
      ],
      [
        "wi",
        "th "
      ],
      [
        "ment",
        "al "
      ],
      [
        " acros",
        "s all"
      ],
      [
        "im",
        "prov"
      ],
      [
        "s, ",
        "with "
      ],
      [
        "f",
        "ro"
      ],
      [
        "ci",
        "p"
      ],
      [
        " parti",
        "cip"
      ],
      [
        "fro",
        "m "
      ],
      [
        "%",
        " "
      ],
      [
        "a",
        "g"
      ],
      [
        "c",
        "l"
      ],
      [
        "i",
        "al "
      ],
      [
        "m",
        "ar"
      ],
      [
        "v",
        "en"
      ],
      [
        "fic",
        "ienc"
      ],
      [
        "ef",
        "ficienc"
      ],
      [
        "efficienc",
        "y"
      ],
      [
        "e",
        "a"
      ],
      [
        "t",
        "re"
      ],
      [
        "n",
        "t"
      ],
      [
        "ci",
        "enti"
      ],
      [
        " ",
        "m"
      ],
      [
        "ic",
        "al "
      ],
      [
        "rea",
        "k"
      ],
      [
        "du",
        "c"
      ],
      [
        "g",
        "in"
      ],
      [
        "al",
        "y"
      ],
      [
        " an",
        "aly"
      ],
      [
        "ex",
        "c"
      ],
      [
        "op",
        "er"
      ],
      [
        "n",
        "ing"
      ],
      [
        "o",
        "ver"
      ],
      [
        "t",
        "r"
      ],
      [
        "e ",
        "to "
      ],
      [
        "tion",
        " "
      ],
      [
        "es",
        "s "
      ],
      [
        "ear",
        "ning"
      ],
      [
        "d",
        "a"
      ],
      [
        "o",
        "gy "
      ],
      [
        "u",
        "g"
      ],
      [
        "th",
        "ro"
      ],
      [
        "st",
        "s a"
      ],
      [
        "ol",
        "ogy "
      ],
      [
        "ho",
        "to"
      ],
      [
        "thro",
        "ug"
      ],
      [
        "v",
        "el"
      ],
      [
        " and ",
        "ex"
      ],
      [
        "de",
        "vel"
      ],
      [
        "I",
        "ts "
      ],
      [
        "n",
        "er"
      ],
      [
        "y",
        " a"
      ],
      [
        "in",
        "iti"
      ],
      [
        "re",
        "ac"
      ],
      [
        "ti",
        "m"
      ],
      [
        " b",
        "i"
      ],
      [
        "ed",
        " a"
      ],
      [
        "ma",
        "k"
      ],
      [
        " ",
        "n"
      ],
      [
        " ",
        "int"
      ],
      [
        ")",
        "\n"
      ],
      [
        "1",
        "0"
      ],
      [
        ":",
        "\n    "
      ],
      [
        "=",
        " "
      ],
      [
        "b",
        "out "
      ],
      [
        "b",
        "ook"
      ],
      [
        "d",
        "ing"
      ],
      [
        "e",
        "ver"
      ],
      [
        "h",
        "ed "
      ],
      [
        "h",
        "el"
      ],
      [
        "t",
        "ur"
      ],
      [
        " a",
        "bout "
      ],
      [
        "re",
        "tur"
      ],
      [
        "or",
        " "
      ],
      [
        "st",
        "or"
      ],
      [
        "ex",
        "pl"
      ],
      [
        " calculate_fibonacci(n",
        "-"
      ],
      [
        "retur",
        "n"
      ],
      [
        "i",
        "z"
      ],
      [
        "t",
        "er"
      ],
      [
        " ",
        "com"
      ],
      [
        "l",
        "an"
      ],
      [
        "el",
        "y "
      ],
      [
        "h",
        "y"
      ],
      [
        "s",
        "e and "
      ],
      [
        "pl",
        "ex"
      ],
      [
        ",",
        " a"
      ],
      [
        "d",
        " a"
      ],
      [
        "e",
        " a"
      ],
      [
        "e",
        "ac"
      ],
      [
        "i",
        "t "
      ],
      [
        "u",
        "th"
      ],
      [
        "u",
        "st "
      ],
      [
        "th",
        "e a"
      ],
      [
        "ed ",
        "in "
      ],
      [
        "eac",
        "h"
      ],
      [
        "h",
        "l"
      ],
      [
        "l",
        "igh"
      ],
      [
        "or",
        "op"
      ],
      [
        "hl",
        "orop"
      ],
      [
        ". ",
        "The "
      ],
      [
        "s",
        "."
      ],
      [
        ". ",
        "S"
      ],
      [
        " ",
        "co"
      ],
      [
        " ",
        "st"
      ],
      [
        " ",
        "ur"
      ],
      [
        " ",
        "gre"
      ],
      [
        ",",
        "5"
      ],
      [
        "-",
        "b"
      ],
      [
        "0",
        "0"
      ],
      [
        "2",
        ",5"
      ],
      [
        "D",
        "ata"
      ],
      [
        "a",
        "min"
      ],
      [
        "b",
        "an"
      ],
      [
        "c",
        "al"
      ],
      [
        "d",
        "y "
      ],
      [
        "e",
        "ing "
      ],
      [
        "g",
        "g"
      ],
      [
        "k",
        " accessib"
      ],
      [
        "o",
        "s"
      ],
      [
        "p",
        " between"
      ],
      [
        "p",
        "os"
      ],
      [
        "s",
        "ti"
      ],
      [
        "s",
        "co"
      ],
      [
        "s",
        " acros"
      ],
      [
        "s",
        "hi"
      ],
      [
        "t",
        "w"
      ],
      [
        "t",
        "s a"
      ],
      [
        "t",
        "s acros"
      ],
      [
        "u",
        "dy "
      ],
      [
        "w",
        "ell"
      ],
      [
        " a",
        "rea"
      ],
      [
        "s ",
        "tw"
      ],
      [
        "ti",
        "es "
      ],
      [
        "al",
        "th "
      ],
      [
        "an",
        "ts acros"
      ],
      [
        "an",
        " area"
      ],
      [
        "el",
        "ve "
      ],
      [
        "es",
        "ts a"
      ],
      [
        "es ",
        "the cor"
      ],
      [
        " and ",
        "repor"
      ],
      [
        "st",
        "udy "
      ],
      [
        "it",
        "an area"
      ],
      [
        "ci",
        "ties "
      ],
      [
        "in ",
        "met"
      ],
      [
        "ex",
        "amin"
      ],
      [
        "Th",
        "is "
      ],
      [
        "ol",
        "itan area"
      ],
      [
        "ec",
        "ted "
      ],
      [
        "ll",
        "ected "
      ],
      [
        "ly ",
        "significant "
      ],
      [
        "s. ",
        "The "
      ],
      [
        "s. ",
        "Data"
      ],
      [
        "ati",
        "sti"
      ],
      [
        " par",
        "k accessib"
      ],
      [
        "su",
        "gg"
      ],
      [
        "ve ",
        "relation"
      ],
      [
        "ted ",
        "well"
      ],
      [
        "iti",
        "ve relation"
      ],
      [
        "relation",
        " between"
      ],
      [
        "outcomes ",
        "in met"
      ],
      [
        "ility",
        " and repor"
      ],
      [
        "es and ",
        "mental "
      ],
      [
        "pac",
        "es and mental "
      ],
      [
        "en s",
        "paces and mental "
      ],
      [
        "rop",
        "olitan area"
      ],
      [
        "he",
        "alth "
      ],
      [
        " particip",
        "ants acros"
      ],
      [
        "from ",
        "2,5"
      ],
      [
        " co",
        "llected "
      ],
      [
        " st",
        "atisti"
      ],
      [
        " ur",
        "ban"
      ],
      [
        " gre",
        "en spaces and mental "
      ],
      [
        "-b",
        "eing "
      ],
      [
        "00",
        " participants acros"
      ],
      [
        "cal",
        "ly significant "
      ],
      [
        "p between",
        " park accessib"
      ],
      [
        "pos",
        "itive relation"
      ],
      [
        "sco",
        "res"
      ],
      [
        "shi",
        "p between park accessib"
      ],
      [
        "s tw",
        "elve "
      ],
      [
        "ests a",
        " statisti"
      ],
      [
        "es the cor",
        "relation between"
      ],
      [
        "study ",
        "examin"
      ],
      [
        "cities ",
        "sugg"
      ],
      [
        "This ",
        "study examin"
      ],
      [
        "s. Data",
        " collected "
      ],
      [
        "ted well",
        "-being "
      ],
      [
        "outcomes in met",
        "ropolitan area"
      ],
      [
        "ility and repor",
        "ted well-being "
      ],
      [
        "health ",
        "outcomes in metropolitan area"
      ],
      [
        "from 2,5",
        "00 participants acros"
      ],
      [
        " urban",
        " green spaces and mental "
      ],
      [
        "cally significant ",
        "positive relation"
      ],
      [
        "ship between park accessib",
        "ility and reported well-being "
      ],
      [
        "s twelve ",
        "cities sugg"
      ],
      [
        "ests a statisti",
        "cally significant positive relation"
      ],
      [
        "es the correlation between",
        " urban green spaces and mental "
      ],
      [
        "This study examin",
        "es the correlation between urban green spaces and mental "
      ],
      [
        "s. Data collected ",
        "from 2,500 participants acros"
      ],
      [
        "health outcomes in metropolitan area",
        "s. Data collected from 2,500 participants acros"
      ],
      [
        "ship between park accessibility and reported well-being ",
        "scores"
      ],
      [
        "s twelve cities sugg",
        "ests a statistically significant positive relation"
      ],
      [
        "This study examines the correlation between urban green spaces and mental ",
        "health outcomes in metropolitan areas. Data collected from 2,500 participants acros"
      ],
      [
        "s twelve cities suggests a statistically significant positive relation",
        "ship between park accessibility and reported well-being scores"
      ],
      [
        "This study examines the correlation between urban green spaces and mental health outcomes in metropolitan areas. Data collected from 2,500 participants acros",
        "s twelve cities suggests a statistically significant positive relationship between park accessibility and reported well-being scores"
      ],
      [
        "y",
        ". The "
      ],
      [
        " ",
        "tre"
      ],
      [
        "%",
        " s"
      ],
      [
        "7",
        "8"
      ],
      [
        "a",
        "s"
      ],
      [
        "d",
        "e "
      ],
      [
        "e",
        "able "
      ],
      [
        "f",
        "i"
      ],
      [
        "f",
        "ec"
      ],
      [
        "i",
        "de "
      ],
      [
        "j",
        "or"
      ],
      [
        "l",
        ". P"
      ],
      [
        "m",
        "p"
      ],
      [
        "m",
        "is"
      ],
      [
        "r",
        "ic"
      ],
      [
        "r",
        "at"
      ],
      [
        "r",
        "st "
      ],
      [
        "w",
        "er"
      ],
      [
        "in",
        "ical "
      ],
      [
        "e ",
        "min"
      ],
      [
        "re",
        "d "
      ],
      [
        "re",
        "duc"
      ],
      [
        "th",
        "in the "
      ],
      [
        "th",
        ". S"
      ],
      [
        "t ",
        "pro"
      ],
      [
        "y ",
        "of c"
      ],
      [
        "al",
        " and "
      ],
      [
        "ed ",
        "pro"
      ],
      [
        "to",
        "co"
      ],
      [
        "to",
        "m "
      ],
      [
        "the ",
        "new"
      ],
      [
        "ing ",
        "resul"
      ],
      [
        "at",
        "men"
      ],
      [
        "st",
        "rat"
      ],
      [
        "it",
        "y of c"
      ],
      [
        "ed",
        " across all"
      ],
      [
        "ts ",
        "for "
      ],
      [
        "ts ",
        "wer"
      ],
      [
        "ho",
        "wing "
      ],
      [
        "ati",
        "ent "
      ],
      [
        "wi",
        "thin the "
      ],
      [
        "ef",
        "fec"
      ],
      [
        "su",
        "red "
      ],
      [
        "ma",
        "jor"
      ],
      [
        "im",
        "al and "
      ],
      [
        "de",
        "mon"
      ],
      [
        "sy",
        "mp"
      ],
      [
        "met",
        "ric"
      ],
      [
        "significant ",
        "symp"
      ],
      [
        "outcomes ",
        "improv"
      ],
      [
        "mon",
        "th. S"
      ],
      [
        "in the ",
        "major"
      ],
      [
        "man",
        "ag"
      ],
      [
        "s, with ",
        "78"
      ],
      [
        "cl",
        "inical "
      ],
      [
        "ial ",
        "demon"
      ],
      [
        "ea",
        "sured "
      ],
      [
        " m",
        "easured "
      ],
      [
        "tr",
        "ial demon"
      ],
      [
        "tion ",
        "within the "
      ],
      [
        " tre",
        "atmen"
      ],
      [
        "% s",
        "howing "
      ],
      [
        "as",
        "es"
      ],
      [
        "eable ",
        "in the major"
      ],
      [
        "fi",
        "rst "
      ],
      [
        "ide ",
        "effec"
      ],
      [
        "l. P",
        "atient "
      ],
      [
        "mis",
        "ing resul"
      ],
      [
        "e min",
        "imal and "
      ],
      [
        "reduc",
        "tion within the "
      ],
      [
        "t pro",
        "toco"
      ],
      [
        "ed pro",
        "mising resul"
      ],
      [
        "tom ",
        "reduction within the "
      ],
      [
        "the new",
        " treatmen"
      ],
      [
        "strat",
        "ed promising resul"
      ],
      [
        "ity of c",
        "ases"
      ],
      [
        "ed across all",
        " measured "
      ],
      [
        "ts for ",
        "the new treatmen"
      ],
      [
        "ts wer",
        "e minimal and "
      ],
      [
        "metric",
        "s, with 78"
      ],
      [
        "significant symp",
        "tom reduction within the "
      ],
      [
        "outcomes improv",
        "ed across all measured "
      ],
      [
        "month. S",
        "ide effec"
      ],
      [
        "manag",
        "eable in the major"
      ],
      [
        "clinical ",
        "trial demon"
      ],
      [
        "% showing ",
        "significant symptom reduction within the "
      ],
      [
        "first ",
        "month. Side effec"
      ],
      [
        "l. Patient ",
        "outcomes improved across all measured "
      ],
      [
        "t protoco",
        "l. Patient outcomes improved across all measured "
      ],
      [
        "strated promising resul",
        "ts for the new treatmen"
      ],
      [
        "ts were minimal and ",
        "manageable in the major"
      ],
      [
        "metrics, with 78",
        "% showing significant symptom reduction within the "
      ],
      [
        "clinical trial demon",
        "strated promising results for the new treatmen"
      ],
      [
        "first month. Side effec",
        "ts were minimal and manageable in the major"
      ],
      [
        "t protocol. Patient outcomes improved across all measured ",
        "metrics, with 78% showing significant symptom reduction within the "
      ],
      [
        "clinical trial demonstrated promising results for the new treatmen",
        "t protocol. Patient outcomes improved across all measured metrics, with 78% showing significant symptom reduction within the "
      ],
      [
        "first month. Side effects were minimal and manageable in the major",
        "ity of cases"
      ],
      [
        "clinical trial demonstrated promising results for the new treatment protocol. Patient outcomes improved across all measured metrics, with 78% showing significant symptom reduction within the ",
        "first month. Side effects were minimal and manageable in the majority of cases"
      ],
      [
        " ",
        "d"
      ],
      [
        " ",
        "the "
      ],
      [
        "4",
        "7"
      ],
      [
        "a",
        "ic"
      ],
      [
        "a",
        "il"
      ],
      [
        "c",
        "e "
      ],
      [
        "c",
        "ur"
      ],
      [
        "c",
        "h "
      ],
      [
        "c",
        "ed a"
      ],
      [
        "d",
        "ou"
      ],
      [
        "e",
        "ves "
      ],
      [
        "f",
        "ac"
      ],
      [
        "h",
        "n"
      ],
      [
        "k",
        "et"
      ],
      [
        "l",
        "y a"
      ],
      [
        "n",
        "ou"
      ],
      [
        "n",
        "ear"
      ],
      [
        "n",
        "ced a"
      ],
      [
        "t",
        "ec"
      ],
      [
        "t",
        "aic"
      ],
      [
        "v",
        "ol"
      ],
      [
        "v",
        "ail"
      ],
      [
        "re",
        "new"
      ],
      [
        "re",
        "nt"
      ],
      [
        "s ",
        "cur"
      ],
      [
        "on",
        "ven"
      ],
      [
        "on",
        " the "
      ],
      [
        "t ",
        "the "
      ],
      [
        "al",
        " p"
      ],
      [
        " an",
        "nou"
      ],
      [
        "ar",
        " p"
      ],
      [
        "to",
        "da"
      ],
      [
        "an",
        "el"
      ],
      [
        "tion",
        "al p"
      ],
      [
        "the ",
        "per"
      ],
      [
        "ing ",
        "the per"
      ],
      [
        "es",
        "ign"
      ],
      [
        " b",
        "reak"
      ],
      [
        "in ",
        "renew"
      ],
      [
        "ear",
        "ch "
      ],
      [
        " c",
        "ell"
      ],
      [
        " ac",
        "hi"
      ],
      [
        "ol",
        "ar p"
      ],
      [
        " s",
        "olar p"
      ],
      [
        "res",
        "earch "
      ],
      [
        ", ",
        "near"
      ],
      [
        "ly ",
        "dou"
      ],
      [
        "for",
        "man"
      ],
      [
        "bl",
        "ing the per"
      ],
      [
        "new",
        " solar p"
      ],
      [
        "able ",
        "energy "
      ],
      [
        "able ",
        "on the "
      ],
      [
        "h ",
        "in renew"
      ],
      [
        "ility",
        " annou"
      ],
      [
        "of c",
        "onven"
      ],
      [
        "% ",
        "efficiency"
      ],
      [
        "mar",
        "ket"
      ],
      [
        "cienti",
        "sts a"
      ],
      [
        "ology ",
        "toda"
      ],
      [
        "hoto",
        "vol"
      ],
      [
        "throug",
        "h in renew"
      ],
      [
        "y. The ",
        "new solar p"
      ],
      [
        " d",
        "esign"
      ],
      [
        "47",
        "% efficiency"
      ],
      [
        "ce ",
        "of conven"
      ],
      [
        "eves ",
        "47% efficiency"
      ],
      [
        "fac",
        "ility annou"
      ],
      [
        "hn",
        "ology toda"
      ],
      [
        "ly a",
        "vail"
      ],
      [
        "nced a",
        " break"
      ],
      [
        "tec",
        "hnology toda"
      ],
      [
        "taic",
        " cell"
      ],
      [
        "rent",
        "ly avail"
      ],
      [
        "s cur",
        "rently avail"
      ],
      [
        "t the ",
        "research "
      ],
      [
        "anel",
        " design"
      ],
      [
        "tional p",
        "hotovol"
      ],
      [
        " achi",
        "eves 47% efficiency"
      ],
      [
        ", near",
        "ly dou"
      ],
      [
        "forman",
        "ce of conven"
      ],
      [
        "bling the per",
        "formance of conven"
      ],
      [
        "able energy ",
        "technology toda"
      ],
      [
        "able on the ",
        "market"
      ],
      [
        "cientists a",
        "t the research "
      ],
      [
        "through in renew",
        "able energy technology toda"
      ],
      [
        "y. The new solar p",
        "anel design"
      ],
      [
        "facility annou",
        "nced a break"
      ],
      [
        "taic cell",
        "s currently avail"
      ],
      [
        "tional photovol",
        "taic cells currently avail"
      ],
      [
        " achieves 47% efficiency",
        ", nearly dou"
      ],
      [
        "bling the performance of conven",
        "tional photovoltaic cells currently avail"
      ],
      [
        "cientists at the research ",
        "facility announced a break"
      ],
      [
        "through in renewable energy technology toda",
        "y. The new solar panel design"
      ],
      [
        " achieves 47% efficiency, nearly dou",
        "bling the performance of conventional photovoltaic cells currently avail"
      ],
      [
        "cientists at the research facility announced a break",
        "through in renewable energy technology today. The new solar panel design"
      ],
      [
        " achieves 47% efficiency, nearly doubling the performance of conventional photovoltaic cells currently avail",
        "able on the market"
      ],
      [
        "cientists at the research facility announced a breakthrough in renewable energy technology today. The new solar panel design",
        " achieves 47% efficiency, nearly doubling the performance of conventional photovoltaic cells currently available on the market"
      ],
      [
        " ",
        "to "
      ],
      [
        " ",
        "initi"
      ],
      [
        "$",
        "4"
      ],
      [
        "-",
        "year"
      ],
      [
        "-",
        "over"
      ],
      [
        ".",
        "8"
      ],
      [
        "2",
        "3"
      ],
      [
        "O",
        "per"
      ],
      [
        "c",
        "rea"
      ],
      [
        "e",
        "ed"
      ],
      [
        "g",
        "ro"
      ],
      [
        "i",
        "on"
      ],
      [
        "p",
        "ec"
      ],
      [
        "q",
        "u"
      ],
      [
        "s",
        "ed "
      ],
      [
        "t",
        "ation"
      ],
      [
        "t",
        "ly "
      ],
      [
        "u",
        "e "
      ],
      [
        "v",
        "es and "
      ],
      [
        "in",
        "ess "
      ],
      [
        "in",
        "crea"
      ],
      [
        "re",
        "ven"
      ],
      [
        "s ",
        "repor"
      ],
      [
        "s ",
        "improv"
      ],
      [
        "t ",
        "exc"
      ],
      [
        "ar",
        "ter"
      ],
      [
        "ed ",
        "significan"
      ],
      [
        ". ",
        "Oper"
      ],
      [
        "co",
        "st "
      ],
      [
        " b",
        "us"
      ],
      [
        "ex",
        "pec"
      ],
      [
        "ation",
        "al "
      ],
      [
        "ation",
        " initi"
      ],
      [
        "ed",
        " analy"
      ],
      [
        "op",
        "tim"
      ],
      [
        "ll",
        "ion"
      ],
      [
        "ly ",
        "earning"
      ],
      [
        "st ",
        "expec"
      ],
      [
        "un",
        "it"
      ],
      [
        "ati",
        "ves and "
      ],
      [
        "h ",
        "$4"
      ],
      [
        "du",
        "e to "
      ],
      [
        "year",
        "-over"
      ],
      [
        "ating ",
        "mar"
      ],
      [
        "wing ",
        "23"
      ],
      [
        " across all",
        " bus"
      ],
      [
        "s, with ",
        "reven"
      ],
      [
        "% ",
        "year-over"
      ],
      [
        "efficiency",
        " across all bus"
      ],
      [
        "gin",
        "s improv"
      ],
      [
        "oper",
        "ational "
      ],
      [
        "reac",
        "h $4"
      ],
      [
        " bi",
        "llion"
      ],
      [
        "iz",
        "ation initi"
      ],
      [
        " to ",
        "reach $4"
      ],
      [
        "-year",
        " to reach $4"
      ],
      [
        ".8",
        " billion"
      ],
      [
        "eed",
        "ed analy"
      ],
      [
        "gro",
        "wing 23"
      ],
      [
        "qu",
        "arter"
      ],
      [
        "sed ",
        "operational "
      ],
      [
        "tation",
        "s, with reven"
      ],
      [
        "tly ",
        "due to "
      ],
      [
        "ue ",
        "growing 23"
      ],
      [
        "iness ",
        "unit"
      ],
      [
        "increa",
        "sed operational "
      ],
      [
        "s repor",
        "t exc"
      ],
      [
        "ed significan",
        "tly due to "
      ],
      [
        ". Oper",
        "ating mar"
      ],
      [
        "cost ",
        "optim"
      ],
      [
        "ly earning",
        "s report exc"
      ],
      [
        "st expec",
        "tations, with reven"
      ],
      [
        "atives and ",
        "increased operational "
      ],
      [
        "% year-over",
        "-year to reach $4"
      ],
      [
        "efficiency across all bus",
        "iness unit"
      ],
      [
        "gins improv",
        "ed significantly due to "
      ],
      [
        "ization initi",
        "atives and increased operational "
      ],
      [
        ".8 billion",
        ". Operating mar"
      ],
      [
        "eeded analy",
        "st expectations, with reven"
      ],
      [
        "quarter",
        "ly earnings report exc"
      ],
      [
        "ue growing 23",
        "% year-over-year to reach $4"
      ],
      [
        "cost optim",
        "ization initiatives and increased operational "
      ],
      [
        "gins improved significantly due to ",
        "cost optimization initiatives and increased operational "
      ],
      [
        ".8 billion. Operating mar",
        "gins improved significantly due to cost optimization initiatives and increased operational "
      ],
      [
        "eeded analyst expectations, with reven",
        "ue growing 23% year-over-year to reach $4"
      ],
      [
        "quarterly earnings report exc",
        "eeded analyst expectations, with revenue growing 23% year-over-year to reach $4"
      ],
      [
        ".8 billion. Operating margins improved significantly due to cost optimization initiatives and increased operational ",
        "efficiency across all business unit"
      ],
      [
        "quarterly earnings report exceeded analyst expectations, with revenue growing 23% year-over-year to reach $4",
        ".8 billion. Operating margins improved significantly due to cost optimization initiatives and increased operational efficiency across all business unit"
      ],
      [
        " ",
        "exc"
      ],
      [
        " ",
        "devel"
      ],
      [
        ",",
        " and "
      ],
      [
        "P",
        "y"
      ],
      [
        "a",
        "m"
      ],
      [
        "a",
        "x"
      ],
      [
        "b",
        " devel"
      ],
      [
        "c",
        "ho"
      ],
      [
        "d",
        "ata"
      ],
      [
        "d",
        "ely "
      ],
      [
        "e",
        "co"
      ],
      [
        "e",
        "m "
      ],
      [
        "e",
        "gin"
      ],
      [
        "e",
        ", and "
      ],
      [
        "g",
        "r"
      ],
      [
        "g",
        "u"
      ],
      [
        "i",
        "ve "
      ],
      [
        "l",
        "ib"
      ],
      [
        "m",
        "ing "
      ],
      [
        "o",
        "th"
      ],
      [
        "p",
        "u"
      ],
      [
        "r",
        "ti"
      ],
      [
        "r",
        "ar"
      ],
      [
        "s",
        "is"
      ],
      [
        "s",
        "cienti"
      ],
      [
        "s",
        " and ex"
      ],
      [
        "s",
        "ive "
      ],
      [
        "t",
        "en"
      ],
      [
        "t",
        "ing"
      ],
      [
        "y",
        "nt"
      ],
      [
        "e ",
        "it"
      ],
      [
        "e ",
        "for"
      ],
      [
        "e ",
        "is "
      ],
      [
        "th",
        "on"
      ],
      [
        "y ",
        "eco"
      ],
      [
        "ro",
        "gr"
      ],
      [
        " an",
        " exc"
      ],
      [
        "ed ",
        "for "
      ],
      [
        "ed ",
        "devel"
      ],
      [
        "ic",
        "e for"
      ],
      [
        ". ",
        "Its "
      ],
      [
        "st",
        "em "
      ],
      [
        " b",
        "egin"
      ],
      [
        " b",
        "oth"
      ],
      [
        " p",
        "rogr"
      ],
      [
        "fic",
        "ial "
      ],
      [
        "fic",
        " com"
      ],
      [
        "ig",
        "enc"
      ],
      [
        "ear",
        " s"
      ],
      [
        "op",
        "ment"
      ],
      [
        ", ",
        "data"
      ],
      [
        "ell",
        "ent "
      ],
      [
        "ell",
        "igenc"
      ],
      [
        "int",
        "elligenc"
      ],
      [
        "we",
        "b devel"
      ],
      [
        "wi",
        "dely "
      ],
      [
        "per",
        "ienc"
      ],
      [
        "sy",
        "stem "
      ],
      [
        "us",
        "ed for "
      ],
      [
        "ag",
        "e is "
      ],
      [
        "cl",
        "ear s"
      ],
      [
        " analy",
        "sis"
      ],
      [
        " and ex",
        "ten"
      ],
      [
        "ner",
        "s and ex"
      ],
      [
        "mak",
        "e it"
      ],
      [
        "lan",
        "gu"
      ],
      [
        ", a",
        "rti"
      ],
      [
        "This study examines the correlation between urban green spaces and mental health outcomes in metropolitan areas. Data collected from 2,500 participants across twelve cities suggests a statistically significant positive relationship between park accessibility and reported well-being scores",
        "."
      ],
      [
        "Py",
        "thon"
      ],
      [
        "am",
        "ming "
      ],
      [
        "ax",
        " and exten"
      ],
      [
        "cho",
        "ice for"
      ],
      [
        "e, and ",
        "scienti"
      ],
      [
        "lib",
        "rar"
      ],
      [
        "pu",
        "ting"
      ],
      [
        "sive ",
        "librar"
      ],
      [
        "ynt",
        "ax and exten"
      ],
      [
        "y eco",
        "system "
      ],
      [
        " an exc",
        "ellent "
      ],
      [
        "ed devel",
        "oper"
      ],
      [
        ". Its ",
        "clear s"
      ],
      [
        " begin",
        "ners and ex"
      ],
      [
        " both",
        " beginners and ex"
      ],
      [
        " progr",
        "amming "
      ],
      [
        "ficial ",
        "intelligenc"
      ],
      [
        "fic com",
        "puting"
      ],
      [
        "opment",
        ", data"
      ],
      [
        "web devel",
        "opment, data"
      ],
      [
        "widely ",
        "used for "
      ],
      [
        "perienc",
        "ed developer"
      ],
      [
        "age is ",
        "widely used for "
      ],
      [
        " analysis",
        ", arti"
      ],
      [
        "make it",
        " an excellent "
      ],
      [
        "langu",
        "age is widely used for "
      ],
      [
        "Python",
        " programming "
      ],
      [
        "choice for",
        " both beginners and ex"
      ],
      [
        "e, and scienti",
        "fic computing"
      ],
      [
        "sive librar",
        "y ecosystem "
      ],
      [
        "yntax and exten",
        "sive library ecosystem "
      ],
      [
        ". Its clear s",
        "yntax and extensive library ecosystem "
      ],
      [
        "ficial intelligenc",
        "e, and scientific computing"
      ],
      [
        "web development, data",
        " analysis, arti"
      ],
      [
        "make it an excellent ",
        "choice for both beginners and ex"
      ],
      [
        "language is widely used for ",
        "web development, data analysis, arti"
      ],
      [
        "Python programming ",
        "language is widely used for web development, data analysis, arti"
      ],
      [
        ". Its clear syntax and extensive library ecosystem ",
        "make it an excellent choice for both beginners and ex"
      ],
      [
        "ficial intelligence, and scientific computing",
        ". Its clear syntax and extensive library ecosystem make it an excellent choice for both beginners and ex"
      ],
      [
        "Python programming language is widely used for web development, data analysis, arti",
        "ficial intelligence, and scientific computing. Its clear syntax and extensive library ecosystem make it an excellent choice for both beginners and ex"
      ],
      [
        "Python programming language is widely used for web development, data analysis, artificial intelligence, and scientific computing. Its clear syntax and extensive library ecosystem make it an excellent choice for both beginners and ex",
        "perienced developer"
      ],
      [
        "\n",
        "resul"
      ],
      [
        " ",
        "<"
      ],
      [
        " ",
        "f"
      ],
      [
        " ",
        "y"
      ],
      [
        " ",
        "The "
      ],
      [
        " ",
        "of"
      ],
      [
        " ",
        "the c"
      ],
      [
        " ",
        "of "
      ],
      [
        "!",
        " The "
      ],
      [
        "'",
        "F"
      ],
      [
        "'",
        "r"
      ],
      [
        "(",
        "f"
      ],
      [
        "+",
        " calculate_fibonacci(n-"
      ],
      [
        "-",
        ">"
      ],
      [
        "1",
        ") "
      ],
      [
        "1",
        ":\n    "
      ],
      [
        "2",
        ")\n"
      ],
      [
        ":",
        " int"
      ],
      [
        "=",
        " calculate_fibonacci("
      ],
      [
        "H",
        "igh"
      ],
      [
        "J",
        "ust "
      ],
      [
        "M",
        "a"
      ],
      [
        "S",
        "tre"
      ],
      [
        "a",
        "in"
      ],
      [
        "a",
        "th"
      ],
      [
        "a",
        "y "
      ],
      [
        "a",
        "per"
      ],
      [
        "c",
        "e"
      ],
      [
        "c",
        "h"
      ],
      [
        "d",
        "o"
      ],
      [
        "d",
        "ef"
      ],
      [
        "d",
        "if"
      ],
      [
        "d",
        "en s"
      ],
      [
        "d",
        "s. The "
      ],
      [
        "e",
        "t "
      ],
      [
        "e",
        ". "
      ],
      [
        "f",
        "in"
      ],
      [
        "f",
        "ere"
      ],
      [
        "g",
        "ed "
      ],
      [
        "i",
        "es"
      ],
      [
        "i",
        "ver"
      ],
      [
        "k",
        "ing "
      ],
      [
        "l",
        "ac"
      ],
      [
        "l",
        "ea"
      ],
      [
        "l",
        "e to "
      ],
      [
        "l",
        "ess "
      ],
      [
        "l",
        "earning"
      ],
      [
        "l",
        "ds. The "
      ],
      [
        "m",
        "ell"
      ],
      [
        "n",
        "t "
      ],
      [
        "o",
        "d a"
      ],
      [
        "p",
        "r"
      ],
      [
        "p",
        "ts "
      ],
      [
        "p",
        "aper"
      ],
      [
        "r",
        " p"
      ],
      [
        "s",
        "to"
      ],
      [
        "s",
        "ic"
      ],
      [
        "s",
        "pac"
      ],
      [
        "s",
        "mell"
      ],
      [
        "t",
        "}"
      ],
      [
        "t",
        "y "
      ],
      [
        "t",
        "al "
      ],
      [
        "t",
        "less "
      ],
      [
        "v",
        "is"
      ],
      [
        "w",
        "or"
      ],
      [
        "w",
        "ho"
      ],
      [
        "w",
        "oo"
      ],
      [
        "w",
        "ay "
      ],
      [
        "y",
        "on"
      ],
      [
        "z",
        "ing "
      ],
      [
        "{",
        "resul"
      ],
      [
        " a",
        "st"
      ],
      [
        " a",
        " p"
      ],
      [
        " a",
        "ma"
      ],
      [
        " a",
        "ged "
      ],
      [
        "in",
        "ding"
      ],
      [
        "e ",
        "in "
      ],
      [
        "e ",
        "int"
      ],
      [
        "e ",
        "expl"
      ],
      [
        "e ",
        "sto"
      ],
      [
        "re",
        "com"
      ],
      [
        "s ",
        "com"
      ],
      [
        "s ",
        "con"
      ],
      [
        "s ",
        "gre"
      ],
      [
        "d ",
        "co"
      ],
      [
        "d ",
        "book"
      ],
      [
        "d ",
        "ch"
      ],
      [
        "d ",
        "woo"
      ],
      [
        "th",
        "er"
      ],
      [
        "en",
        " the c"
      ],
      [
        "t ",
        "the cor"
      ],
      [
        "t ",
        "= calculate_fibonacci("
      ],
      [
        "or",
        "ation"
      ],
      [
        "or",
        "tal "
      ],
      [
        "y ",
        "vis"
      ],
      [
        " an",
        " ama"
      ],
      [
        "ed ",
        "ever"
      ],
      [
        "the ",
        "un"
      ],
      [
        "ing ",
        "do"
      ],
      [
        "es ",
        "it"
      ],
      [
        " and ",
        "lea"
      ],
      [
        "st",
        "ed in "
      ],
      [
        "it",
        "or "
      ],
      [
        " b",
        "ook"
      ],
      [
        " b",
        "inding"
      ],
      [
        " p",
        "us"
      ],
      [
        "ou",
        "'r"
      ],
      [
        "ou",
        "r p"
      ],
      [
        "in ",
        "Stre"
      ],
      [
        "ol",
        "d book"
      ],
      [
        "ec",
        "king "
      ],
      [
        "men",
        "d ch"
      ],
      [
        "et",
        "ed ever"
      ],
      [
        "op",
        "en the c"
      ],
      [
        "to ",
        "dif"
      ],
      [
        ", ",
        "each"
      ],
      [
        "ly ",
        "recom"
      ],
      [
        "rea",
        "ding"
      ],
      [
        "int",
        "(f"
      ],
      [
        "    ",
        "return"
      ],
      [
        "ibonacci(",
        "10"
      ],
      [
        "un",
        "tless "
      ],
      [
        "s. ",
        "Its "
      ],
      [
        "we",
        "ath"
      ],
      [
        "is",
        "hed "
      ],
      [
        ") ",
        "= "
      ],
      [
        ") ",
        "->"
      ],
      [
        "if",
        " n"
      ],
      [
        "if",
        " y"
      ],
      [
        "if",
        "ty "
      ],
      [
        "ere",
        "d woo"
      ],
      [
        "ere",
        "sted in "
      ],
      [
        "for ",
        "over"
      ],
      [
        "year",
        "s. Its "
      ],
      [
        "ves ",
        "hel"
      ],
      [
        "\n    ",
        "return"
      ],
      [
        "out ",
        "if y"
      ],
      [
        " calculate_fibonacci(n",
        ": int"
      ],
      [
        "rop",
        "hy"
      ],
      [
        " accessib",
        "le to "
      ],
      [
        "reak",
        "ing do"
      ],
      [
        "ner",
        " of "
      ],
      [
        "mak",
        "es it"
      ],
      [
        " n",
        "\n    return"
      ],
      [
        " int",
        ":\n    "
      ],
      [
        ")\n",
        "pr"
      ],
      [
        "10",
        ")\npr"
      ],
      [
        "= ",
        "1:\n    "
      ],
      [
        "book",
        " about "
      ],
      [
        "ever",
        "yon"
      ],
      [
        "hed ",
        "open the c"
      ],
      [
        "hel",
        "ves hel"
      ],
      [
        " about ",
        "the un"
      ],
      [
        "or ",
        "expl"
      ],
      [
        "stor",
        "ies"
      ],
      [
        "stor",
        "e sto"
      ],
      [
        " calculate_fibonacci(n-",
        "1) "
      ],
      [
        "se and ",
        "our p"
      ],
      [
        "plex",
        " ast"
      ],
      [
        "it ",
        "out if y"
      ],
      [
        "uth",
        "or expl"
      ],
      [
        "the a",
        "uthor expl"
      ],
      [
        "\nresul",
        "t = calculate_fibonacci("
      ],
      [
        " <",
        "= 1:\n    "
      ],
      [
        " f",
        "ifty "
      ],
      [
        " of",
        " aged "
      ],
      [
        "! The ",
        "way "
      ],
      [
        "'F",
        "ibonacci(10"
      ],
      [
        "+ calculate_fibonacci(n-",
        "2)\n"
      ],
      [
        "High",
        "ly recom"
      ],
      [
        "Just ",
        "fin"
      ],
      [
        "Ma",
        "in Stre"
      ],
      [
        "ain",
        "s com"
      ],
      [
        "ce",
        "pts "
      ],
      [
        "def",
        " calculate_fibonacci(n: int"
      ],
      [
        "den s",
        "helves hel"
      ],
      [
        "et ",
        "for over"
      ],
      [
        "e. ",
        "Highly recom"
      ],
      [
        "fere",
        "nt "
      ],
      [
        "iver",
        "se and our p"
      ],
      [
        "lac",
        "e in "
      ],
      [
        "learning",
        " about the un"
      ],
      [
        "lds. The ",
        "smell"
      ],
      [
        "od a",
        "t the cor"
      ],
      [
        "paper",
        " and lea"
      ],
      [
        "sic",
        "s con"
      ],
      [
        "spac",
        "e expl"
      ],
      [
        "t}",
        "'"
      ],
      [
        "wor",
        "lds. The smell"
      ],
      [
        "who",
        " pus"
      ],
      [
        "zing ",
        "book about "
      ],
      [
        "{resul",
        "t}'"
      ],
      [
        " a p",
        "ortal "
      ],
      [
        "e int",
        "erested in "
      ],
      [
        "s gre",
        "eted ever"
      ],
      [
        "d co",
        "untless "
      ],
      [
        "ther",
        " binding"
      ],
      [
        "oration",
        "! The way "
      ],
      [
        "y vis",
        "itor "
      ],
      [
        " an ama",
        "zing book about "
      ],
      [
        " book",
        " a portal "
      ],
      [
        "ou'r",
        "e interested in "
      ],
      [
        "old book",
        "store sto"
      ],
      [
        "ecking ",
        "it out if y"
      ],
      [
        "mend ch",
        "ecking it out if y"
      ],
      [
        "to dif",
        "ferent "
      ],
      [
        ", each",
        " book a portal "
      ],
      [
        "reading",
        " an amazing book about "
      ],
      [
        "int(f",
        "'Fibonacci(10"
      ],
      [
        "    return",
        " n\n    return"
      ],
      [
        "weath",
        "ered woo"
      ],
      [
        "ished ",
        "reading an amazing book about "
      ],
      [
        ") = ",
        "{result}'"
      ],
      [
        ") ->",
        " int:\n    "
      ],
      [
        "if n",
        " <= 1:\n    "
      ],
      [
        "years. Its ",
        "weathered woo"
      ],
      [
        "rophy",
        "sics con"
      ],
      [
        " accessible to ",
        "everyon"
      ],
      [
        "reaking do",
        "or"
      ],
      [
        "ner of ",
        "Main Stre"
      ],
      [
        "makes it",
        " accessible to everyon"
      ],
      [
        "10)\npr",
        "int(f'Fibonacci(10"
      ],
      [
        "hed open the c",
        "reaking door"
      ],
      [
        "stories",
        ", each book a portal "
      ],
      [
        " calculate_fibonacci(n-1) ",
        "+ calculate_fibonacci(n-2)\n"
      ],
      [
        "plex ast",
        "rophysics con"
      ],
      [
        "the author expl",
        "ains com"
      ],
      [
        "\nresult = calculate_fibonacci(",
        "10)\nprint(f'Fibonacci(10"
      ],
      [
        " fifty ",
        "years. Its weathered woo"
      ],
      [
        " of aged ",
        "paper and lea"
      ],
      [
        "Just fin",
        "ished reading an amazing book about "
      ],
      [
        "cepts ",
        "makes it accessible to everyon"
      ],
      [
        "def calculate_fibonacci(n: int",
        ") -> int:\n    "
      ],
      [
        "den shelves hel",
        "d countless "
      ],
      [
        "et for over",
        " fifty years. Its weathered woo"
      ],
      [
        "e. Highly recom",
        "mend checking it out if y"
      ],
      [
        "iverse and our p",
        "lace in "
      ],
      [
        "learning about the un",
        "iverse and our place in "
      ],
      [
        "od at the cor",
        "ner of Main Stre"
      ],
      [
        "space expl",
        "oration! The way "
      ],
      [
        "worlds. The smell",
        " of aged paper and lea"
      ],
      [
        "who pus",
        "hed open the creaking door"
      ],
      [
        "s greeted ever",
        "y visitor "
      ],
      [
        "ther binding",
        "s greeted every visitor "
      ],
      [
        "ou're interested in ",
        "learning about the universe and our place in "
      ],
      [
        "old bookstore sto",
        "od at the corner of Main Stre"
      ],
      [
        "to different ",
        "worlds. The smell of aged paper and lea"
      ],
      [
        "    return n\n    return",
        " calculate_fibonacci(n-1) + calculate_fibonacci(n-2)\n"
      ],
      [
        "if n <= 1:\n    ",
        "    return n\n    return calculate_fibonacci(n-1) + calculate_fibonacci(n-2)\n"
      ],
      [
        "stories, each book a portal ",
        "to different worlds. The smell of aged paper and lea"
      ],
      [
        "plex astrophysics con",
        "cepts makes it accessible to everyon"
      ],
      [
        "the author explains com",
        "plex astrophysics concepts makes it accessible to everyon"
      ],
      [
        "\nresult = calculate_fibonacci(10)\nprint(f'Fibonacci(10",
        ") = {result}'"
      ],
      [
        "Just finished reading an amazing book about ",
        "space exploration! The way "
      ],
      [
        "def calculate_fibonacci(n: int) -> int:\n    ",
        "if n <= 1:\n        return n\n    return calculate_fibonacci(n-1) + calculate_fibonacci(n-2)\n"
      ],
      [
        "den shelves held countless ",
        "stories, each book a portal to different worlds. The smell of aged paper and lea"
      ],
      [
        "et for over fifty years. Its weathered woo",
        "den shelves held countless stories, each book a portal to different worlds. The smell of aged paper and lea"
      ],
      [
        "e. Highly recommend checking it out if y",
        "ou're interested in learning about the universe and our place in "
      ],
      [
        "ther bindings greeted every visitor ",
        "who pushed open the creaking door"
      ],
      [
        "old bookstore stood at the corner of Main Stre",
        "et for over fifty years. Its weathered wooden shelves held countless stories, each book a portal to different worlds. The smell of aged paper and lea"
      ],
      [
        "the author explains complex astrophysics concepts makes it accessible to everyon",
        "e. Highly recommend checking it out if you're interested in learning about the universe and our place in "
      ],
      [
        "Just finished reading an amazing book about space exploration! The way ",
        "the author explains complex astrophysics concepts makes it accessible to everyone. Highly recommend checking it out if you're interested in learning about the universe and our place in "
      ],
      [
        "def calculate_fibonacci(n: int) -> int:\n    if n <= 1:\n        return n\n    return calculate_fibonacci(n-1) + calculate_fibonacci(n-2)\n",
        "\nresult = calculate_fibonacci(10)\nprint(f'Fibonacci(10) = {result}'"
      ],
      [
        "old bookstore stood at the corner of Main Street for over fifty years. Its weathered wooden shelves held countless stories, each book a portal to different worlds. The smell of aged paper and lea",
        "ther bindings greeted every visitor who pushed open the creaking door"
      ],
      [
        "Just finished reading an amazing book about space exploration! The way the author explains complex astrophysics concepts makes it accessible to everyone. Highly recommend checking it out if you're interested in learning about the universe and our place in ",
        "it"
      ],
      [
        "C",
        "hlorop"
      ],
      [
        "S",
        "cientists at the research facility announced a breakthrough in renewable energy technology today. The new solar panel design achieves 47% efficiency, nearly doubling the performance of conventional photovoltaic cells currently available on the market"
      ],
      [
        "U",
        "n"
      ],
      [
        "a",
        "t "
      ],
      [
        "a",
        "sts a"
      ],
      [
        "b",
        "s"
      ],
      [
        "b",
        " s"
      ],
      [
        "c",
        "ation"
      ],
      [
        "d",
        "er"
      ],
      [
        "d",
        "ing "
      ],
      [
        "f",
        "un"
      ],
      [
        "g",
        "l"
      ],
      [
        "g",
        "en"
      ],
      [
        "h",
        " a"
      ],
      [
        "i",
        "es "
      ],
      [
        "l",
        "asts a"
      ],
      [
        "m",
        "ical "
      ],
      [
        "n",
        "th"
      ],
      [
        "o",
        "x"
      ],
      [
        "p",
        "hoto"
      ],
      [
        "t",
        ", "
      ],
      [
        "u",
        "co"
      ],
      [
        "u",
        "cation"
      ],
      [
        "y",
        "gen"
      ],
      [
        "in",
        "to"
      ],
      [
        "s ",
        "th"
      ],
      [
        "t ",
        "energy "
      ],
      [
        "t ",
        "ligh"
      ],
      [
        "er",
        "ies "
      ],
      [
        "or",
        "b s"
      ],
      [
        "to",
        " bi"
      ],
      [
        "an",
        "ding "
      ],
      [
        "tion",
        "s. "
      ],
      [
        "the ",
        "pro"
      ],
      [
        "es",
        "is "
      ],
      [
        "es ",
        "in "
      ],
      [
        "es ",
        "gl"
      ],
      [
        "at",
        "ely "
      ],
      [
        "st",
        "anding "
      ],
      [
        "ul",
        "tim"
      ],
      [
        "ul",
        "es in "
      ],
      [
        " c",
        "he"
      ],
      [
        "ol",
        "ec"
      ],
      [
        " s",
        "eries "
      ],
      [
        "pro",
        "duc"
      ],
      [
        "ed",
        "ucation"
      ],
      [
        "ll",
        " m"
      ],
      [
        "ts ",
        "con"
      ],
      [
        "ver",
        "t ligh"
      ],
      [
        "is ",
        "fun"
      ],
      [
        "un",
        "ligh"
      ],
      [
        "the c",
        "hlorop"
      ],
      [
        "ces",
        "s th"
      ],
      [
        "sy",
        "nth"
      ],
      [
        "energy ",
        "throug"
      ],
      [
        "ating ",
        "the pro"
      ],
      [
        "of ",
        "reac"
      ],
      [
        ". P",
        "lan"
      ],
      [
        "mental ",
        "to bi"
      ],
      [
        "da",
        "mental to bi"
      ],
      [
        "ology ",
        "education"
      ],
      [
        "initi",
        "ating the pro"
      ],
      [
        " com",
        "plex"
      ],
      [
        "hy",
        "ll m"
      ],
      [
        "se and ",
        "ox"
      ],
      [
        "Chlorop",
        "hyll m"
      ],
      [
        "Un",
        "der"
      ],
      [
        "at ",
        "ultim"
      ],
      [
        "bs",
        "orb s"
      ],
      [
        "h a",
        " complex"
      ],
      [
        "lasts a",
        "bsorb s"
      ],
      [
        "mical ",
        "energy throug"
      ],
      [
        "photo",
        "synth"
      ],
      [
        "t, ",
        "initiating the pro"
      ],
      [
        "uco",
        "se and ox"
      ],
      [
        "into",
        " che"
      ],
      [
        "t energy ",
        "into che"
      ],
      [
        "tions. ",
        "Chlorophyll m"
      ],
      [
        "esis ",
        "is fun"
      ],
      [
        "es gl",
        "ucose and ox"
      ],
      [
        "ately ",
        "produc"
      ],
      [
        "standing ",
        "photosynth"
      ],
      [
        "ules in ",
        "the chlorop"
      ],
      [
        "olec",
        "ules in the chlorop"
      ],
      [
        " series ",
        "of reac"
      ],
      [
        "ts con",
        "vert ligh"
      ],
      [
        "unligh",
        "t, initiating the pro"
      ],
      [
        "cess th",
        "at ultim"
      ],
      [
        ". Plan",
        "ts convert ligh"
      ],
      [
        "damental to bi",
        "ology education"
      ],
      [
        "Under",
        "standing photosynth"
      ],
      [
        "h a complex",
        " series of reac"
      ],
      [
        "lasts absorb s",
        "unlight, initiating the pro"
      ],
      [
        "mical energy throug",
        "h a complex series of reac"
      ],
      [
        "t energy into che",
        "mical energy through a complex series of reac"
      ],
      [
        "tions. Chlorophyll m",
        "olecules in the chlorop"
      ],
      [
        "esis is fun",
        "damental to biology education"
      ],
      [
        "es glucose and ox",
        "ygen"
      ],
      [
        "ately produc",
        "es glucose and oxygen"
      ],
      [
        "cess that ultim",
        "ately produces glucose and oxygen"
      ],
      [
        ". Plants convert ligh",
        "t energy into chemical energy through a complex series of reac"
      ],
      [
        "Understanding photosynth",
        "esis is fundamental to biology education"
      ],
      [
        "lasts absorb sunlight, initiating the pro",
        "cess that ultimately produces glucose and oxygen"
      ],
      [
        "tions. Chlorophyll molecules in the chlorop",
        "lasts absorb sunlight, initiating the process that ultimately produces glucose and oxygen"
      ],
      [
        ". Plants convert light energy into chemical energy through a complex series of reac",
        "tions. Chlorophyll molecules in the chloroplasts absorb sunlight, initiating the process that ultimately produces glucose and oxygen"
      ],
      [
        "Understanding photosynthesis is fundamental to biology education",
        ". Plants convert light energy into chemical energy through a complex series of reactions. Chlorophyll molecules in the chloroplasts absorb sunlight, initiating the process that ultimately produces glucose and oxygen"
      ],
      [
        "The ",
        "quarterly earnings report exceeded analyst expectations, with revenue growing 23% year-over-year to reach $4.8 billion. Operating margins improved significantly due to cost optimization initiatives and increased operational efficiency across all business unit"
      ],
      [
        "The ",
        "clinical trial demonstrated promising results for the new treatment protocol. Patient outcomes improved across all measured metrics, with 78% showing significant symptom reduction within the first month. Side effects were minimal and manageable in the majority of cases"
      ],
      [
        "(",
        "b"
      ],
      [
        "1",
        "2"
      ],
      [
        "A",
        "n"
      ],
      [
        "A",
        ". "
      ],
      [
        "E",
        "x"
      ],
      [
        "S",
        "ec"
      ],
      [
        "b",
        "m"
      ],
      [
        "b",
        "y"
      ],
      [
        "b",
        "e "
      ],
      [
        "b",
        "y a"
      ],
      [
        "d",
        "i"
      ],
      [
        "d",
        "ific"
      ],
      [
        "e",
        "ment"
      ],
      [
        "f",
        "o"
      ],
      [
        "g",
        "e and "
      ],
      [
        "h",
        "ib"
      ],
      [
        "h",
        "ere"
      ],
      [
        "k",
        "n"
      ],
      [
        "l",
        "in"
      ],
      [
        "l",
        "ed"
      ],
      [
        "m",
        "o"
      ],
      [
        "m",
        "s"
      ],
      [
        "m",
        "ust "
      ],
      [
        "o",
        "w"
      ],
      [
        "p",
        "prov"
      ],
      [
        "r",
        "it"
      ],
      [
        "s",
        "ent "
      ],
      [
        "t",
        "ati"
      ],
      [
        "w",
        "rit"
      ],
      [
        "re",
        "men"
      ],
      [
        "s ",
        "to "
      ],
      [
        "s ",
        "out"
      ],
      [
        "th",
        "is "
      ],
      [
        "en",
        "tati"
      ],
      [
        "t ",
        "to "
      ],
      [
        "t ",
        "must "
      ],
      [
        "or",
        "iz"
      ],
      [
        "y ",
        "mo"
      ],
      [
        "ing",
        " an"
      ],
      [
        "ed ",
        "rep"
      ],
      [
        "ed ",
        "by a"
      ],
      [
        "an",
        "t to "
      ],
      [
        "tion",
        "ed a"
      ],
      [
        "tion",
        "s out"
      ],
      [
        "ac",
        "t must "
      ],
      [
        "the ",
        "ter"
      ],
      [
        "es ",
        "here"
      ],
      [
        " and ",
        "con"
      ],
      [
        "it",
        "ted "
      ],
      [
        "in ",
        "writ"
      ],
      [
        "ation",
        "s to "
      ],
      [
        " ac",
        "kn"
      ],
      [
        "to ",
        "the ter"
      ],
      [
        "res",
        "entati"
      ],
      [
        "ll",
        " parti"
      ],
      [
        "ur",
        "su"
      ],
      [
        "con",
        "tr"
      ],
      [
        "con",
        "sent "
      ],
      [
        "su",
        "bm"
      ],
      [
        ") ",
        "of "
      ],
      [
        "gre",
        "ement"
      ],
      [
        "enti",
        "t"
      ],
      [
        "ves ",
        "from "
      ],
      [
        "ating ",
        "entit"
      ],
      [
        " particip",
        "ating entit"
      ],
      [
        "tion ",
        "12"
      ],
      [
        ", a",
        "ll parti"
      ],
      [
        "d a",
        "pprov"
      ],
      [
        "it ",
        "A. "
      ],
      [
        "uth",
        "oriz"
      ],
      [
        "the a",
        "fo"
      ],
      [
        "ed in ",
        "Ex"
      ],
      [
        "each",
        " participating entit"
      ],
      [
        "(b",
        ") of "
      ],
      [
        "An",
        "y mo"
      ],
      [
        "Sec",
        "tion 12"
      ],
      [
        "by",
        " ackn"
      ],
      [
        "be ",
        "subm"
      ],
      [
        "di",
        "tions out"
      ],
      [
        "dific",
        "ations to "
      ],
      [
        "ge and ",
        "consent "
      ],
      [
        "hib",
        "it A. "
      ],
      [
        "lin",
        "ed in Ex"
      ],
      [
        "led",
        "ge and consent "
      ],
      [
        "ms",
        " and con"
      ],
      [
        "ow",
        "ledge and consent "
      ],
      [
        "remen",
        "tioned a"
      ],
      [
        "this ",
        "contr"
      ],
      [
        "ing an",
        "d approv"
      ],
      [
        "ed rep",
        "resentati"
      ],
      [
        "ed by a",
        "uthoriz"
      ],
      [
        "ant to ",
        "Section 12"
      ],
      [
        "act must ",
        "be subm"
      ],
      [
        "es here",
        "by ackn"
      ],
      [
        "itted ",
        "in writ"
      ],
      [
        "to the ter",
        "ms and con"
      ],
      [
        "ursu",
        "ant to Section 12"
      ],
      [
        "greement",
        ", all parti"
      ],
      [
        "ves from ",
        "each participating entit"
      ],
      [
        "the afo",
        "rementioned a"
      ],
      [
        "(b) of ",
        "the aforementioned a"
      ],
      [
        "Any mo",
        "difications to "
      ],
      [
        "ditions out",
        "lined in Ex"
      ],
      [
        "hibit A. ",
        "Any modifications to "
      ],
      [
        "owledge and consent ",
        "to the terms and con"
      ],
      [
        "this contr",
        "act must be subm"
      ],
      [
        "ing and approv",
        "ed by authoriz"
      ],
      [
        "ed representati",
        "ves from each participating entit"
      ],
      [
        "es hereby ackn",
        "owledge and consent to the terms and con"
      ],
      [
        "itted in writ",
        "ing and approved by authoriz"
      ],
      [
        "ursuant to Section 12",
        "(b) of the aforementioned a"
      ],
      [
        "greement, all parti",
        "es hereby acknowledge and consent to the terms and con"
      ],
      [
        "ditions outlined in Ex",
        "hibit A. Any modifications to "
      ],
      [
        "this contract must be subm",
        "itted in writing and approved by authoriz"
      ],
      [
        "ursuant to Section 12(b) of the aforementioned a",
        "greement, all parties hereby acknowledge and consent to the terms and con"
      ],
      [
        "ditions outlined in Exhibit A. Any modifications to ",
        "this contract must be submitted in writing and approved by authoriz"
      ],
      [
        "ursuant to Section 12(b) of the aforementioned agreement, all parties hereby acknowledge and consent to the terms and con",
        "ditions outlined in Exhibit A. Any modifications to this contract must be submitted in writing and approved by authoriz"
      ],
      [
        "ursuant to Section 12(b) of the aforementioned agreement, all parties hereby acknowledge and consent to the terms and conditions outlined in Exhibit A. Any modifications to this contract must be submitted in writing and approved by authoriz",
        "ed representatives from each participating entit"
      ],
      [
        "The ",
        "Python programming language is widely used for web development, data analysis, artificial intelligence, and scientific computing. Its clear syntax and extensive library ecosystem make it an excellent choice for both beginners and experienced developer"
      ],
      [
        "Understanding photosynthesis is fundamental to biology education. Plants convert light energy into chemical energy through a complex series of reactions. Chlorophyll molecules in the chloroplasts absorb sunlight, initiating the process that ultimately produces glucose and oxygen",
        "."
      ],
      [
        "Just finished reading an amazing book about space exploration! The way the author explains complex astrophysics concepts makes it accessible to everyone. Highly recommend checking it out if you're interested in learning about the universe and our place in it",
        "."
      ],
      [
        "old bookstore stood at the corner of Main Street for over fifty years. Its weathered wooden shelves held countless stories, each book a portal to different worlds. The smell of aged paper and leather bindings greeted every visitor who pushed open the creaking door",
        "."
      ],
      [
        "ursuant to Section 12(b) of the aforementioned agreement, all parties hereby acknowledge and consent to the terms and conditions outlined in Exhibit A. Any modifications to this contract must be submitted in writing and approved by authorized representatives from each participating entit",
        "y"
      ],
      [
        "def calculate_fibonacci(n: int) -> int:\n    if n <= 1:\n        return n\n    return calculate_fibonacci(n-1) + calculate_fibonacci(n-2)\n\nresult = calculate_fibonacci(10)\nprint(f'Fibonacci(10) = {result}'",
        ")"
      ],
      [
        "Scientists at the research facility announced a breakthrough in renewable energy technology today. The new solar panel design achieves 47% efficiency, nearly doubling the performance of conventional photovoltaic cells currently available on the market",
        "."
      ],
      [
        "P",
        "ursuant to Section 12(b) of the aforementioned agreement, all parties hereby acknowledge and consent to the terms and conditions outlined in Exhibit A. Any modifications to this contract must be submitted in writing and approved by authorized representatives from each participating entity"
      ],
      [
        "The clinical trial demonstrated promising results for the new treatment protocol. Patient outcomes improved across all measured metrics, with 78% showing significant symptom reduction within the first month. Side effects were minimal and manageable in the majority of cases",
        "."
      ],
      [
        "The quarterly earnings report exceeded analyst expectations, with revenue growing 23% year-over-year to reach $4.8 billion. Operating margins improved significantly due to cost optimization initiatives and increased operational efficiency across all business unit",
        "s."
      ],
      [
        "The ",
        "old bookstore stood at the corner of Main Street for over fifty years. Its weathered wooden shelves held countless stories, each book a portal to different worlds. The smell of aged paper and leather bindings greeted every visitor who pushed open the creaking door."
      ],
      [
        "The Python programming language is widely used for web development, data analysis, artificial intelligence, and scientific computing. Its clear syntax and extensive library ecosystem make it an excellent choice for both beginners and experienced developer",
        "s."
      ],
      [
        "Pursuant to Section 12(b) of the aforementioned agreement, all parties hereby acknowledge and consent to the terms and conditions outlined in Exhibit A. Any modifications to this contract must be submitted in writing and approved by authorized representatives from each participating entity",
        "."
      ],
      [
        "The quarterly earnings report exceeded analyst expectations, with revenue growing 23% year-over-year to reach $4.8 billion. Operating margins improved significantly due to cost optimization initiatives and increased operational efficiency across all business unit",
        "s. "
      ],
      [
        "clinical trial demonstrated promising results for the new treatment protocol. Patient outcomes improved across all measured metrics, with 78% showing significant symptom reduction within the first month. Side effects were minimal and manageable in the majority of cases",
        "."
      ],
      [
        "def calculate_fibonacci(n: int) -> int:\n    if n <= 1:\n        return n\n    return calculate_fibonacci(n-1) + calculate_fibonacci(n-2)\n\nresult = calculate_fibonacci(10)\nprint(f'Fibonacci(10) = {result}'",
        ") "
      ],
      [
        ". ",
        "This study examines the correlation between urban green spaces and mental health outcomes in metropolitan areas. Data collected from 2,500 participants across twelve cities suggests a statistically significant positive relationship between park accessibility and reported well-being scores."
      ],
      [
        "The ",
        "old bookstore stood at the corner of Main Street for over fifty years. Its weathered wooden shelves held countless stories, each book a portal to different worlds. The smell of aged paper and leather bindings greeted every visitor who pushed open the creaking door"
      ],
      [
        "The Python programming language is widely used for web development, data analysis, artificial intelligence, and scientific computing. Its clear syntax and extensive library ecosystem make it an excellent choice for both beginners and experienced developer",
        "s. The "
      ],
      [
        ". ",
        "Understanding photosynthesis is fundamental to biology education. Plants convert light energy into chemical energy through a complex series of reactions. Chlorophyll molecules in the chloroplasts absorb sunlight, initiating the process that ultimately produces glucose and oxygen."
      ],
      [
        ". The ",
        "clinical trial demonstrated promising results for the new treatment protocol. Patient outcomes improved across all measured metrics, with 78% showing significant symptom reduction within the first month. Side effects were minimal and manageable in the majority of cases."
      ],
      [
        ". S",
        "cientists at the research facility announced a breakthrough in renewable energy technology today. The new solar panel design achieves 47% efficiency, nearly doubling the performance of conventional photovoltaic cells currently available on the market"
      ],
      [
        "Python programming language is widely used for web development, data analysis, artificial intelligence, and scientific computing. Its clear syntax and extensive library ecosystem make it an excellent choice for both beginners and experienced developer",
        "s."
      ],
      [
        ". Scientists at the research facility announced a breakthrough in renewable energy technology today. The new solar panel design achieves 47% efficiency, nearly doubling the performance of conventional photovoltaic cells currently available on the market",
        "."
      ],
      [
        ". ",
        "def calculate_fibonacci(n: int) -> int:\n    if n <= 1:\n        return n\n    return calculate_fibonacci(n-1) + calculate_fibonacci(n-2)\n\nresult = calculate_fibonacci(10)\nprint(f'Fibonacci(10) = {result}')"
      ],
      [
        "The Python programming language is widely used for web development, data analysis, artificial intelligence, and scientific computing. Its clear syntax and extensive library ecosystem make it an excellent choice for both beginners and experienced developer",
        "s. "
      ],
      [
        ". ",
        "Just finished reading an amazing book about space exploration! The way the author explains complex astrophysics concepts makes it accessible to everyone. Highly recommend checking it out if you're interested in learning about the universe and our place in it."
      ],
      [
        ". P",
        "ursuant to Section 12(b) of the aforementioned agreement, all parties hereby acknowledge and consent to the terms and conditions outlined in Exhibit A. Any modifications to this contract must be submitted in writing and approved by authorized representatives from each participating entity"
      ],
      [
        ". The ",
        "old bookstore stood at the corner of Main Street for over fifty years. Its weathered wooden shelves held countless stories, each book a portal to different worlds. The smell of aged paper and leather bindings greeted every visitor who pushed open the creaking door."
      ],
      [
        "quarterly earnings report exceeded analyst expectations, with revenue growing 23% year-over-year to reach $4.8 billion. Operating margins improved significantly due to cost optimization initiatives and increased operational efficiency across all business unit",
        "s."
      ],
      [
        ". Pursuant to Section 12(b) of the aforementioned agreement, all parties hereby acknowledge and consent to the terms and conditions outlined in Exhibit A. Any modifications to this contract must be submitted in writing and approved by authorized representatives from each participating entity",
        "."
      ],
      [
        "The quarterly earnings report exceeded analyst expectations, with revenue growing 23% year-over-year to reach $4.8 billion. Operating margins improved significantly due to cost optimization initiatives and increased operational efficiency across all business unit",
        "s. The "
      ],
      [
        "P",
        "ursuant to Section 12(b) of the aforementioned agreement, all parties hereby acknowledge and consent to the terms and conditions outlined in Exhibit A. Any modifications to this contract must be submitted in writing and approved by authorized representatives from each participating entit"
      ],
      [
        "Pursuant to Section 12(b) of the aforementioned agreement, all parties hereby acknowledge and consent to the terms and conditions outlined in Exhibit A. Any modifications to this contract must be submitted in writing and approved by authorized representatives from each participating entit",
        "y. The "
      ],
      [
        "The quarterly earnings report exceeded analyst expectations, with revenue growing 23% year-over-year to reach $4.8 billion. Operating margins improved significantly due to cost optimization initiatives and increased operational efficiency across all business units. ",
        "This study examines the correlation between urban green spaces and mental health outcomes in metropolitan areas. Data collected from 2,500 participants across twelve cities suggests a statistically significant positive relationship between park accessibility and reported well-being scores."
      ],
      [
        ". The ",
        "Python programming language is widely used for web development, data analysis, artificial intelligence, and scientific computing. Its clear syntax and extensive library ecosystem make it an excellent choice for both beginners and experienced developers."
      ],
      [
        ". The ",
        "quarterly earnings report exceeded analyst expectations, with revenue growing 23% year-over-year to reach $4.8 billion. Operating margins improved significantly due to cost optimization initiatives and increased operational efficiency across all business units."
      ],
      [
        "This study examines the correlation between urban green spaces and mental health outcomes in metropolitan areas. Data collected from 2,500 participants across twelve cities suggests a statistically significant positive relationship between park accessibility and reported well-being scores",
        ". Pursuant to Section 12(b) of the aforementioned agreement, all parties hereby acknowledge and consent to the terms and conditions outlined in Exhibit A. Any modifications to this contract must be submitted in writing and approved by authorized representatives from each participating entity."
      ],
      [
        "def calculate_fibonacci(n: int) -> int:\n    if n <= 1:\n        return n\n    return calculate_fibonacci(n-1) + calculate_fibonacci(n-2)\n\nresult = calculate_fibonacci(10)\nprint(f'Fibonacci(10) = {result}') ",
        "This study examines the correlation between urban green spaces and mental health outcomes in metropolitan areas. Data collected from 2,500 participants across twelve cities suggests a statistically significant positive relationship between park accessibility and reported well-being scores."
      ],
      [
        "def calculate_fibonacci(n: int) -> int:\n    if n <= 1:\n        return n\n    return calculate_fibonacci(n-1) + calculate_fibonacci(n-2)\n\nresult = calculate_fibonacci(10)\nprint(f'Fibonacci(10) = {result}') ",
        "Pursuant to Section 12(b) of the aforementioned agreement, all parties hereby acknowledge and consent to the terms and conditions outlined in Exhibit A. Any modifications to this contract must be submitted in writing and approved by authorized representatives from each participating entity."
      ],
      [
        "The Python programming language is widely used for web development, data analysis, artificial intelligence, and scientific computing. Its clear syntax and extensive library ecosystem make it an excellent choice for both beginners and experienced developers. The ",
        "old bookstore stood at the corner of Main Street for over fifty years. Its weathered wooden shelves held countless stories, each book a portal to different worlds. The smell of aged paper and leather bindings greeted every visitor who pushed open the creaking door."
      ],
      [
        "The Python programming language is widely used for web development, data analysis, artificial intelligence, and scientific computing. Its clear syntax and extensive library ecosystem make it an excellent choice for both beginners and experienced developers. The ",
        "Python programming language is widely used for web development, data analysis, artificial intelligence, and scientific computing. Its clear syntax and extensive library ecosystem make it an excellent choice for both beginners and experienced developers."
      ],
      [
        "This study examines the correlation between urban green spaces and mental health outcomes in metropolitan areas. Data collected from 2,500 participants across twelve cities suggests a statistically significant positive relationship between park accessibility and reported well-being scores",
        ". This study examines the correlation between urban green spaces and mental health outcomes in metropolitan areas. Data collected from 2,500 participants across twelve cities suggests a statistically significant positive relationship between park accessibility and reported well-being scores."
      ],
      [
        "This study examines the correlation between urban green spaces and mental health outcomes in metropolitan areas. Data collected from 2,500 participants across twelve cities suggests a statistically significant positive relationship between park accessibility and reported well-being scores",
        ". The clinical trial demonstrated promising results for the new treatment protocol. Patient outcomes improved across all measured metrics, with 78% showing significant symptom reduction within the first month. Side effects were minimal and manageable in the majority of cases."
      ],
      [
        "This study examines the correlation between urban green spaces and mental health outcomes in metropolitan areas. Data collected from 2,500 participants across twelve cities suggests a statistically significant positive relationship between park accessibility and reported well-being scores",
        ". Scientists at the research facility announced a breakthrough in renewable energy technology today. The new solar panel design achieves 47% efficiency, nearly doubling the performance of conventional photovoltaic cells currently available on the market."
      ],
      [
        "Just finished reading an amazing book about space exploration! The way the author explains complex astrophysics concepts makes it accessible to everyone. Highly recommend checking it out if you're interested in learning about the universe and our place in it",
        ". The old bookstore stood at the corner of Main Street for over fifty years. Its weathered wooden shelves held countless stories, each book a portal to different worlds. The smell of aged paper and leather bindings greeted every visitor who pushed open the creaking door."
      ],
      [
        "Scientists at the research facility announced a breakthrough in renewable energy technology today. The new solar panel design achieves 47% efficiency, nearly doubling the performance of conventional photovoltaic cells currently available on the market",
        ". def calculate_fibonacci(n: int) -> int:\n    if n <= 1:\n        return n\n    return calculate_fibonacci(n-1) + calculate_fibonacci(n-2)\n\nresult = calculate_fibonacci(10)\nprint(f'Fibonacci(10) = {result}')"
      ],
      [
        "Scientists at the research facility announced a breakthrough in renewable energy technology today. The new solar panel design achieves 47% efficiency, nearly doubling the performance of conventional photovoltaic cells currently available on the market",
        ". Pursuant to Section 12(b) of the aforementioned agreement, all parties hereby acknowledge and consent to the terms and conditions outlined in Exhibit A. Any modifications to this contract must be submitted in writing and approved by authorized representatives from each participating entity."
      ],
      [
        "The clinical trial demonstrated promising results for the new treatment protocol. Patient outcomes improved across all measured metrics, with 78% showing significant symptom reduction within the first month. Side effects were minimal and manageable in the majority of cases",
        ". This study examines the correlation between urban green spaces and mental health outcomes in metropolitan areas. Data collected from 2,500 participants across twelve cities suggests a statistically significant positive relationship between park accessibility and reported well-being scores."
      ],
      [
        "The clinical trial demonstrated promising results for the new treatment protocol. Patient outcomes improved across all measured metrics, with 78% showing significant symptom reduction within the first month. Side effects were minimal and manageable in the majority of cases",
        ". The clinical trial demonstrated promising results for the new treatment protocol. Patient outcomes improved across all measured metrics, with 78% showing significant symptom reduction within the first month. Side effects were minimal and manageable in the majority of cases."
      ],
      [
        "The clinical trial demonstrated promising results for the new treatment protocol. Patient outcomes improved across all measured metrics, with 78% showing significant symptom reduction within the first month. Side effects were minimal and manageable in the majority of cases",
        ". def calculate_fibonacci(n: int) -> int:\n    if n <= 1:\n        return n\n    return calculate_fibonacci(n-1) + calculate_fibonacci(n-2)\n\nresult = calculate_fibonacci(10)\nprint(f'Fibonacci(10) = {result}')"
      ],
      [
        "The clinical trial demonstrated promising results for the new treatment protocol. Patient outcomes improved across all measured metrics, with 78% showing significant symptom reduction within the first month. Side effects were minimal and manageable in the majority of cases",
        ". Just finished reading an amazing book about space exploration! The way the author explains complex astrophysics concepts makes it accessible to everyone. Highly recommend checking it out if you're interested in learning about the universe and our place in it."
      ],
      [
        "Pursuant to Section 12(b) of the aforementioned agreement, all parties hereby acknowledge and consent to the terms and conditions outlined in Exhibit A. Any modifications to this contract must be submitted in writing and approved by authorized representatives from each participating entity",
        ". This study examines the correlation between urban green spaces and mental health outcomes in metropolitan areas. Data collected from 2,500 participants across twelve cities suggests a statistically significant positive relationship between park accessibility and reported well-being scores."
      ],
      [
        "Pursuant to Section 12(b) of the aforementioned agreement, all parties hereby acknowledge and consent to the terms and conditions outlined in Exhibit A. Any modifications to this contract must be submitted in writing and approved by authorized representatives from each participating entity",
        ". Understanding photosynthesis is fundamental to biology education. Plants convert light energy into chemical energy through a complex series of reactions. Chlorophyll molecules in the chloroplasts absorb sunlight, initiating the process that ultimately produces glucose and oxygen."
      ],
      [
        "Pursuant to Section 12(b) of the aforementioned agreement, all parties hereby acknowledge and consent to the terms and conditions outlined in Exhibit A. Any modifications to this contract must be submitted in writing and approved by authorized representatives from each participating entity",
        ". Just finished reading an amazing book about space exploration! The way the author explains complex astrophysics concepts makes it accessible to everyone. Highly recommend checking it out if you're interested in learning about the universe and our place in it."
      ],
      [
        "The quarterly earnings report exceeded analyst expectations, with revenue growing 23% year-over-year to reach $4.8 billion. Operating margins improved significantly due to cost optimization initiatives and increased operational efficiency across all business units. ",
        "Understanding photosynthesis is fundamental to biology education. Plants convert light energy into chemical energy through a complex series of reactions. Chlorophyll molecules in the chloroplasts absorb sunlight, initiating the process that ultimately produces glucose and oxygen."
      ],
      [
        "The quarterly earnings report exceeded analyst expectations, with revenue growing 23% year-over-year to reach $4.8 billion. Operating margins improved significantly due to cost optimization initiatives and increased operational efficiency across all business units. ",
        "def calculate_fibonacci(n: int) -> int:\n    if n <= 1:\n        return n\n    return calculate_fibonacci(n-1) + calculate_fibonacci(n-2)\n\nresult = calculate_fibonacci(10)\nprint(f'Fibonacci(10) = {result}')"
      ],
      [
        "The quarterly earnings report exceeded analyst expectations, with revenue growing 23% year-over-year to reach $4.8 billion. Operating margins improved significantly due to cost optimization initiatives and increased operational efficiency across all business units. ",
        "Pursuant to Section 12(b) of the aforementioned agreement, all parties hereby acknowledge and consent to the terms and conditions outlined in Exhibit A. Any modifications to this contract must be submitted in writing and approved by authorized representatives from each participating entity."
      ],
      [
        "The old bookstore stood at the corner of Main Street for over fifty years. Its weathered wooden shelves held countless stories, each book a portal to different worlds. The smell of aged paper and leather bindings greeted every visitor who pushed open the creaking door",
        ". Understanding photosynthesis is fundamental to biology education. Plants convert light energy into chemical energy through a complex series of reactions. Chlorophyll molecules in the chloroplasts absorb sunlight, initiating the process that ultimately produces glucose and oxygen."
      ],
      [
        "The old bookstore stood at the corner of Main Street for over fifty years. Its weathered wooden shelves held countless stories, each book a portal to different worlds. The smell of aged paper and leather bindings greeted every visitor who pushed open the creaking door",
        ". The clinical trial demonstrated promising results for the new treatment protocol. Patient outcomes improved across all measured metrics, with 78% showing significant symptom reduction within the first month. Side effects were minimal and manageable in the majority of cases."
      ],
      [
        "The Python programming language is widely used for web development, data analysis, artificial intelligence, and scientific computing. Its clear syntax and extensive library ecosystem make it an excellent choice for both beginners and experienced developers. The ",
        "quarterly earnings report exceeded analyst expectations, with revenue growing 23% year-over-year to reach $4.8 billion. Operating margins improved significantly due to cost optimization initiatives and increased operational efficiency across all business units."
      ],
      [
        "The Python programming language is widely used for web development, data analysis, artificial intelligence, and scientific computing. Its clear syntax and extensive library ecosystem make it an excellent choice for both beginners and experienced developers. ",
        "This study examines the correlation between urban green spaces and mental health outcomes in metropolitan areas. Data collected from 2,500 participants across twelve cities suggests a statistically significant positive relationship between park accessibility and reported well-being scores."
      ],
      [
        "The Python programming language is widely used for web development, data analysis, artificial intelligence, and scientific computing. Its clear syntax and extensive library ecosystem make it an excellent choice for both beginners and experienced developers. ",
        "Scientists at the research facility announced a breakthrough in renewable energy technology today. The new solar panel design achieves 47% efficiency, nearly doubling the performance of conventional photovoltaic cells currently available on the market."
      ],
      [
        "The quarterly earnings report exceeded analyst expectations, with revenue growing 23% year-over-year to reach $4.8 billion. Operating margins improved significantly due to cost optimization initiatives and increased operational efficiency across all business units. The ",
        "old bookstore stood at the corner of Main Street for over fifty years. Its weathered wooden shelves held countless stories, each book a portal to different worlds. The smell of aged paper and leather bindings greeted every visitor who pushed open the creaking door."
      ],
      [
        "This study examines the correlation between urban green spaces and mental health outcomes in metropolitan areas. Data collected from 2,500 participants across twelve cities suggests a statistically significant positive relationship between park accessibility and reported well-being scores",
        ". def calculate_fibonacci(n: int) -> int:\n    if n <= 1:\n        return n\n    return calculate_fibonacci(n-1) + calculate_fibonacci(n-2)\n\nresult = calculate_fibonacci(10)\nprint(f'Fibonacci(10) = {result}')"
      ],
      [
        "Just finished reading an amazing book about space exploration! The way the author explains complex astrophysics concepts makes it accessible to everyone. Highly recommend checking it out if you're interested in learning about the universe and our place in it",
[...]
